04
fc
02
06
02
0d
05
f4
f3
fd
f8
0a
15
13
05
01
fc
04
04
02
06
fb
f2
f4
f9
fb
f4
f8
fe
00
03
fd
ed
ee
fd
f5
09
1a
1b
0f
f8
fb
01
04
06
fe
fa
f5
fb
ff
01
ff
06
09
04
0b
00
f3
ef
fc
fe
0d
19
18
0a
fc
fc
fc
ff
fb
fc
f4
ed
ef
f2
fa
12
00
f2
0c
f4
fa
16
0e
f1
07
f9
09
15
f7
00
07
f3
0a
06
fa
0a
ff
f7
0d
0e
12
ff
fa
22
02
f3
09
f6
e7
00
db
d8
f5
da
fe
f3
cf
e1
e0
11
17
fe
f3
0e
ef
0f
fa
d9
e5
eb
0e
30
11
d8
03
06
28
43
12
08
1e
0f
32
2e
de
f3
f3
ec
0d
f9
fc
ee
10
06
fb
f6
01
29
f0
f6
ee
1a
04
e8
f9
07
22
e0
07
fd
0a
02
f2
0e
0b
11
f9
10
f2
14
01
03
1f
db
0c
fa
18
fa
d8
0d
06
0e
ce
00
0a
02
ea
ec
11
f6
fc
fb
19
02
f8
f2
03
27
e7
f7
f3
20
08
e5
f6
06
1c
e2
0a
fa
06
f7
f7
1a
fe
02
02
02
05
00
fd
01
ff
04
ff
f9
fc
fc
04
04
ff
fa
fd
ff
04
02
00
f9
00
f6
fe
06
02
0a
f7
fc
05
01
0c
f6
fb
02
03
0c
fe
fd
02
01
0e
00
01
02
fc
07
f3
fb
02
05
07
ee
f5
02
08
11
f0
f1
fe
06
12
fb
f7
fb
01
0f
00
00
ff
f7
04
00
01
ff
04
05
01
06
05
08
02
06
0a
03
07
07
ff
09
09
06
06
f7
fd
01
09
0a
07
ff
fa
fe
01
06
01
f7
fa
01
05
0a
fc
f9
f7
fd
01
04
fe
ff
f7
fa
07
0c
0e
05
01
03
fd
02
02
fe
02
ff
fe
02
04
ff
f5
fa
fd
05
fe
fc
fb
f2
f8
05
09
06
0b
08
0c
0b
0d
04
fe
00
ff
05
02
00
fe
00
00
fb
00
fb
fc
fa
f8
fa
f7
fa
f8
08
06
04
03
05
02
fe
fc
fd
fd
04
00
fc
fc
fe
02
01
fd
00
fd
01
01
00
00
00
0c
09
07
09
0b
04
fd
fd
fb
02
fe
fb
f9
fa
fc
fd
fe
fc
fd
fc
fd
fd
fa
fe
fe
09
05
fd
fd
f6
0c
f6
e3
e2
f0
10
02
ef
ef
fd
08
03
fe
fd
02
04
07
08
03
07
fb
fd
09
05
fe
02
f7
f2
f5
fb
fb
f6
f6
fb
fa
f9
f9
fe
fd
01
01
03
04
05
07
fc
fc
06
ff
f4
0f
08
01
fd
04
0a
05
06
07
07
fe
04
06
02
fb
fd
ff
00
fd
fb
f0
f9
fa
f3
f8
10
0e
07
09
fd
00
0e
03
fe
f9
f7
02
02
fc
f8
fc
0e
15
08
fe
f7
f5
fc
f8
08
f6
f6
f1
ef
fa
f2
f1
f4
ef
01
f8
f6
fe
f7
02
f8
fd
ff
f9
ff
0b
0f
0d
10
0e
00
00
09
03
02
00
fe
06
03
05
04
fc
06
f9
ff
ea
f6
fc
f3
f5
ec
16
08
ed
12
e4
00
1b
fb
04
f1
e1
06
06
07
ee
df
07
18
17
f8
f3
01
0e
15
fa
09
f6
e6
ff
fa
02
1e
f3
ff
10
fc
0c
0d
fb
00
fb
0b
0c
06
03
f7
01
0b
0d
0b
19
05
e0
05
1c
16
22
e4
de
2b
01
0d
f2
e4
1f
fb
fe
f3
d7
11
08
fc
e5
d3
fd
fe
fd
fe
01
fc
fc
f9
fa
fd
f6
f0
eb
eb
f7
00
fc
fe
fd
02
13
16
19
17
14
fb
fe
fb
f8
fa
01
fd
fc
fa
fe
fd
fb
f9
fa
fa
06
06
04
03
ff
07
0f
11
0b
05
06
04
06
04
07
02
06
08
03
08
fd
fd
fb
fc
03
fe
fb
fc
fa
00
fa
fb
fe
fb
fc
fe
09
08
09
ee
f5
0d
0f
08
e7
f7
0f
20
0f
f1
fc
10
24
12
f9
ec
00
05
05
f3
f7
01
f4
fc
f9
f7
00
fb
03
fb
00
02
f3
00
03
01
05
01
00
05
09
12
03
06
0a
0f
01
ff
00
1b
07
fa
e2
f7
16
03
ee
d0
e4
0a
0e
e9
d4
e6
0c
04
fd
e3
f3
05
02
ff
00
00
02
ff
fa
fd
fd
01
f7
fb
f9
fa
fd
f4
f5
f3
f4
f8
f6
f6
f7
f3
f7
02
04
06
04
03
02
05
06
01
ff
05
07
09
07
03
04
0a
0a
04
04
03
06
0c
06
04
fc
f9
fb
fa
fb
fd
fb
ff
fb
fd
01
00
02
ff
00
06
05
06
04
03
05
06
0b
01
03
08
03
ff
fd
fe
08
04
03
ff
f5
0d
02
06
f7
f1
0f
00
00
f7
f4
14
00
fe
f8
f4
02
fd
00
02
02
01
fd
04
03
fa
09
03
08
00
f8
0f
01
02
fb
f9
0f
fb
fe
fd
f7
f4
fa
fe
ff
06
f9
fb
00
00
01
07
03
07
fd
f8
0e
04
03
fa
f8
0d
fe
fc
f9
fc
fb
fe
fc
fb
fa
01
00
04
00
fd
05
02
03
05
02
0b
05
f8
05
0a
fd
fd
02
fc
fc
fe
02
04
01
02
00
05
08
06
03
02
06
0c
0a
04
05
06
fd
0a
0b
fe
02
0a
05
05
03
01
01
02
01
fe
f8
f7
f8
fc
fa
f7
f0
f2
f4
00
f6
e7
f4
fa
06
00
01
fb
fc
ee
01
17
0e
f2
04
06
f3
01
fe
0f
f7
d7
eb
09
03
01
16
0d
03
fd
00
08
05
ff
f9
18
20
11
ff
01
11
f6
03
0c
0e
ef
c4
e2
0e
02
f9
fc
f9
00
01
00
fd
f8
03
f9
0e
0c
0a
00
04
10
f8
0b
0c
0a
f3
d7
e9
08
fe
fa
0b
fe
ff
fe
02
00
fe
01
f8
0e
2b
09
fc
f1
ea
10
1f
02
f4
fe
f3
1e
20
d9
00
fe
fb
15
d9
e5
f8
f6
01
fb
f3
08
fa
f9
09
e2
ed
0d
fd
1c
fe
d5
f0
02
19
2a
fc
ec
fd
0d
16
13
04
01
06
e9
fa
f9
07
1c
e0
eb
04
04
28
03
d1
e9
f3
19
24
fc
e7
ea
09
19
1a
0f
f8
fc
01
14
07
fb
f4
eb
0a
f1
f0
09
f3
28
09
03
fc
ea
12
f9
f6
fc
f4
11
0d
fb
02
fb
09
0d
04
fc
e5
f5
f0
f5
19
f8
18
0c
14
09
ef
02
f9
fd
02
f2
fc
04
fd
07
0d
01
06
07
fe
f5
ed
eb
fa
12
02
06
ff
0e
06
f9
fa
f4
fd
08
04
fd
04
00
0d
08
00
09
16
fa
e7
f7
08
03
e8
e8
ec
f5
f2
e9
e2
df
ed
09
08
17
2b
29
2b
03
07
fe
fc
f9
0d
00
04
04
04
03
0e
0d
04
f9
00
ef
e7
ef
f7
04
05
11
02
05
f4
02
fb
f7
f3
0a
00
07
07
ff
0b
23
17
0b
fe
03
ff
ef
ed
fc
f6
00
04
f7
f7
fd
02
01
0a
fc
08
12
f7
fb
ec
f2
06
ff
fe
03
f3
fe
fb
07
0f
02
11
fd
f9
fe
13
0c
fb
ff
f0
16
1a
fc
f7
ed
f2
0a
05
05
08
de
f2
f8
0b
1e
f7
05
f1
f8
fe
0f
fa
f6
fb
f5
18
0b
f2
ec
f1
ee
fc
00
fe
0a
dc
ea
02
1a
29
f8
03
02
08
18
02
fa
f8
fb
00
04
03
06
05
01
fd
ff
02
02
fc
fe
f4
f4
00
ff
fc
fc
fe
ff
fa
02
fe
f7
f8
fa
07
0c
0a
00
f9
05
06
12
0e
fe
ff
01
fc
03
01
00
04
02
03
fa
f6
e9
e5
e6
f5
ff
fd
f7
ee
e8
0d
0e
17
16
05
07
06
04
05
05
06
07
06
04
01
e5
e4
d0
eb
e4
f8
f5
f6
db
e8
09
0f
22
f7
e0
16
1d
2d
1f
f1
1a
1c
19
27
19
10
0b
05
15
08
09
0f
11
04
0e
fc
00
14
f8
fb
f6
f2
fc
f7
ea
f2
ef
e5
fc
f3
0b
10
0c
0e
12
fd
06
13
fd
0c
ee
f2
18
f2
02
ec
f0
03
06
ff
f9
f1
eb
fa
01
ff
f3
ff
f4
fe
04
ea
0c
eb
02
00
e7
06
e7
02
03
f7
06
f7
05
07
02
05
02
0a
02
fd
16
00
ff
10
04
2b
04
09
0d
02
25
00
0a
fe
00
0c
f9
01
f8
fb
01
f8
f6
04
f3
04
f6
06
06
e6
0d
ec
05
01
e6
07
e7
05
02
f6
06
f8
06
01
fe
06
fd
05
0e
0e
fc
12
0a
0c
fe
e8
00
0c
14
03
f1
fc
17
fb
f9
f5
f1
f7
08
f8
ea
fd
01
fb
fa
01
ff
fe
00
fe
ed
f8
02
01
00
00
fb
0b
f6
fd
04
fa
fc
0e
02
03
0b
07
0e
09
ff
0f
0f
16
06
ed
03
15
0e
01
e9
f2
16
f2
e8
e5
e5
f3
07
f3
e4
fb
00
fd
11
4e
48
27
f3
03
37
1f
0d
ff
0e
ff
eb
f5
08
02
ce
d8
e2
15
ef
dc
e2
e2
fc
e6
f2
d8
e4
ed
ec
f2
df
e6
fa
14
03
f3
ed
0a
1c
02
0b
04
0e
07
ff
0d
01
16
f7
e9
ec
04
10
f5
f2
01
17
f7
ff
02
0b
15
ec
07
05
22
19
e8
fd
0e
1b
05
0c
f9
d1
21
f9
15
14
cb
01
11
05
14
05
cb
09
02
fc
30
e2
f2
03
fb
1f
13
f1
0b
f7
d6
2a
08
08
0f
d2
07
13
f7
0a
0c
d8
0f
f8
f3
2e
e9
f7
f8
f0
15
10
ee
fb
06
f6
26
ed
f7
11
e6
10
01
f0
09
0f
e5
14
fe
f1
1f
ec
03
ff
eb
03
0c
f5
00
00
08
fa
00
fc
fb
14
e7
07
ff
f8
1b
e8
0a
02
f9
10
f5
01
fd
02
06
00
fe
fa
05
0d
ef
02
f7
03
1a
dd
0d
fa
fd
24
dd
0b
fa
fc
16
ed
05
fc
03
08
f9
fd
fd
05
0a
ee
04
fd
03
1a
e0
10
fa
fc
1e
da
0e
fd
fd
13
ea
09
fb
02
09
f8
02
0b
08
0e
fb
0a
07
07
fc
fe
07
0a
01
f0
fb
04
08
fd
f0
05
03
06
fb
f2
00
01
04
f7
f3
ed
09
06
f4
eb
f7
0d
09
f8
e7
fc
0f
0d
fe
e4
01
0b
0a
fd
f2
05
0c
04
fd
04
f8
05
05
03
fb
fb
0a
09
04
ef
02
0f
09
00
e9
09
08
07
fb
ef
02
07
08
fa
f8
02
fd
01
f0
21
0c
fe
f9
16
1b
f5
00
fa
1b
fb
f2
fa
0f
09
e7
f8
f4
06
e9
e5
fd
07
fc
de
15
09
06
e9
00
0e
f5
07
f2
11
02
00
13
01
09
f6
0f
0c
04
e8
f1
0a
02
ef
de
1b
0b
fd
e2
09
23
ef
f7
eb
1c
0b
f7
04
09
14
fc
02
fe
0d
e4
20
eb
04
e8
11
17
fa
ef
26
2d
8a
2a
07
db
ea
4b
fc
eb
15
ed
09
e7
0c
14
e0
16
ee
17
f5
04
09
fb
07
1e
18
81
2a
11
e4
e3
42
f6
02
18
e7
01
e6
18
09
e1
1d
e3
07
e9
0c
25
f9
f4
1c
2b
98
27
fc
d6
f4
60
f8
e7
18
ef
10
e0
0b
f5
ea
d6
d4
e2
f7
ee
e6
e7
f5
fb
f9
f9
fd
0a
07
12
20
1e
18
14
1b
28
29
1b
17
16
1e
1b
19
0f
12
0f
0e
01
06
04
ff
fb
f2
f5
ee
eb
ee
ef
eb
e5
e5
df
eb
f3
07
18
21
1a
f8
04
0d
0f
f7
01
08
0b
01
fe
00
f5
f0
f4
fd
05
f5
e5
ea
f7
f6
f8
ff
f2
0d
07
f8
fb
fb
22
d3
d4
d8
e7
08
13
f7
f9
1c
43
d2
db
e4
05
13
fa
16
0c
fc
ea
17
19
15
03
f4
01
21
16
f2
dc
2e
2a
16
03
f5
03
0f
0a
fa
d2
f0
f8
06
f2
02
04
00
ff
fa
0e
e2
f8
fd
ef
f8
0f
00
06
02
16
e4
fe
01
f9
f2
1c
05
ea
fb
17
07
cb
e3
03
1b
da
d9
10
05
10
e7
06
07
f4
08
ff
05
fe
fc
0a
01
05
f2
f6
05
fc
e0
fd
17
0a
e5
02
38
21
03
fb
23
21
03
f0
06
12
02
f6
f2
1b
0d
f5
f5
fb
1f
e6
ef
fe
f9
07
f8
11
fc
f0
fd
09
f7
e9
f4
16
04
f1
fd
00
