000004a0
fffff0e2
fffffd2d
0000121e
0000180d
fffffee0
fffff692
fffff33f
fffff3af
ffffe8b8
fffff1ae
00001d34
000005c5
00001347
ffffe5ac
ffffd923
00000938
ffffe993
fffff2bb
00000895
00000655
00000ee2
ffffecf2
ffffdf6c
fffff8c2
fffffdd5
ffffd976
ffffcbdf
000016c0
fffff2b7
00000369
ffffebab
00000897
00000979
00000163
000008e2
ffffe9eb
00000117
00000b65
00000443
fffffb40
000006fb
0000066d
ffffd111
fffff54a
ffffde31
000002e6
00001078
ffffff55
fffff5de
fffff023
0000060f
fffff956
ffffe015
fffff360
0000063f
00000e98
00002214
00000bfc
00001744
00002124
0000054f
fffff6e0
00000ec9
