09
01
e8
f2
f8
0e
f8
e2
e9
fd
f4
e9
f2
04
0c
08
f4
ef
ff
01
fa
ef
ed
02
f6
f9
ee
fe
f3
fb
f3
e8
f1
ee
f0
11
02
05
fe
00
10
05
18
00
fd
07
01
10
06
fb
07
0f
14
13
08
fb
04
0e
03
04
fa
fe
13
0e
13
f1
f7
fa
04
11
f5
f0
f7
ee
fd
e2
d9
e8
ef
e5
f8
e8
f9
04
f6
09
04
22
28
0d
04
02
20
2a
0d
e7
e4
0c
0f
ec
fe
e7
d7
ea
f5
08
ee
d5
e2
fb
1e
01
f3
fc
0b
16
06
04
0d
17
12
10
03
08
0a
fa
f4
05
03
e2
02
fc
0a
04
f8
fc
fc
0a
fe
fd
e3
f7
0f
09
0c
e7
fc
0f
fe
fa
fa
00
f6
ed
01
15
09
0b
0a
1c
19
04
f8
ff
0d
0e
fc
fe
01
09
08
f8
f7
f8
02
ef
fe
01
ec
fe
07
09
02
ec
fd
03
fd
f8
e7
fc
fe
07
fd
fa
04
0b
12
0d
02
0f
f8
f6
ee
f2
f9
f2
f6
f6
f0
f8
f2
fa
fb
ff
01
f9
05
0b
10
0d
00
09
15
0c
00
ff
f4
03
06
12
11
04
fa
ea
f8
16
13
17
10
09
18
1d
0c
0c
01
0b
0a
ea
f4
08
03
08
00
08
05
0a
0a
02
0a
0b
07
05
fe
f8
05
ec
f7
01
05
fc
fa
05
09
ff
01
d4
ec
ef
ed
ed
dc
ec
ef
f1
e6
ec
fb
fe
f2
e2
0d
1f
24
1f
11
06
12
0d
07
00
fc
fa
fa
0c
f9
ed
f4
02
13
fd
f2
f3
18
20
04
ec
fc
1c
15
04
ec
e2
19
0b
fd
f2
f7
f9
0b
08
ee
ec
e2
f8
fd
ec
e4
e0
f4
f5
f4
f9
07
19
0e
08
11
1a
27
15
00
ff
f5
ec
f4
03
05
f6
f0
08
0c
15
ff
f4
11
09
1d
ff
02
1b
0d
18
fa
fe
12
08
14
18
14
16
12
0c
06
0b
fd
07
e7
ee
f1
e6
02
ea
e7
ea
d9
0a
f9
f8
fd
e9
23
18
fc
03
0c
23
16
ff
04
03
13
04
f8
f9
fe
00
f5
e7
da
df
fe
00
f2
f0
fa
fc
fb
fa
f5
0a
0d
02
f4
ed
05
03
ff
f5
fa
f4
04
04
f0
f6
fb
ff
f2
e1
f1
03
08
e9
02
0a
f0
06
ea
fc
fa
f4
0e
fe
11
12
0c
04
00
1e
23
06
f0
0d
12
1b
fb
f3
f2
f1
f7
fd
fa
f3
f2
f2
f4
11
07
06
fe
fd
28
21
19
14
06
23
28
0e
11
0b
f2
f1
ea
eb
fe
02
fd
e6
ee
04
17
07
f8
00
04
00
f9
f3
f5
f2
00
eb
e5
e5
e9
0c
10
ff
fa
11
00
05
fb
f7
04
05
08
02
f4
0a
03
01
f8
eb
fc
fd
fd
fa
f0
f8
03
03
f2
e0
f5
fc
f6
f4
ec
ff
01
fe
f9
f4
fb
08
02
00
02
0a
0b
ff
08
00
01
02
f8
0d
0d
00
09
0e
0a
05
12
04
0f
01
ed
0a
13
09
02
f8
0b
f2
ea
f8
00
f6
04
fe
27
2e
0e
10
03
1a
1c
03
07
fb
0a
06
f5
fb
f6
f6
f6
ea
f2
fa
f1
f2
f0
29
0e
01
0a
16
00
09
0c
10
03
07
10
11
13
04
f4
ed
dd
f0
f6
e8
da
d6
e2
dd
10
0e
fb
03
07
15
13
05
08
12
15
0b
01
00
0b
0c
04
f2
e5
e6
ec
ef
0f
07
df
14
01
07
fd
f5
15
0e
10
0e
02
01
fa
0c
11
f5
e0
eb
fb
f8
ee
e4
e0
ed
df
dd
06
02
08
04
fb
fc
f7
f9
f5
fa
f5
f6
01
fd
fb
f0
f4
f3
ec
f3
01
10
0e
0f
13
f3
05
15
0c
00
0f
22
14
fe
08
08
0b
fa
f9
12
01
0e
0a
0e
0d
1c
09
f4
ec
fa
06
0b
05
f6
13
f7
f9
ec
df
ff
fc
f0
e2
e0
07
fe
fd
f8
fb
0f
0f
0f
14
16
20
ec
f6
14
0e
02
e9
f1
fe
05
09
f0
fc
07
08
09
f7
09
0b
15
14
07
22
2a
20
11
01
fe
07
13
00
0c
00
04
11
07
11
12
ff
0d
17
01
0d
09
05
ff
f9
ff
18
0f
fc
02
05
ff
1b
18
0c
04
03
03
15
18
f6
18
0d
12
03
ef
d5
0a
f5
eb
04
e3
e0
f8
08
f9
00
ff
f5
06
0f
02
05
ee
01
31
02
0a
01
fd
1e
20
00
00
0d
02
17
09
fd
fa
0d
01
15
13
ec
ff
04
fc
03
f7
fd
0c
0b
ff
f9
fe
0b
0a
16
f4
f8
0a
04
02
07
1a
16
0d
0e
f2
f8
ff
fa
f7
fa
f8
f6
07
04
f6
01
f0
f6
0b
06
ff
07
fe
0e
0a
07
05
03
fd
03
f9
fa
fb
ee
02
f5
f2
fa
ef
06
fd
f3
f7
e7
fa
fd
fc
fe
f7
f9
fe
fb
ff
04
f6
fc
f5
f7
09
e8
fa
f9
f0
08
ed
e1
e5
ff
03
f7
e5
e5
f7
0d
0b
09
05
04
07
ff
00
fc
f1
fc
07
ed
f7
f0
00
0f
f4
f1
f4
08
0a
f7
ee
f0
fd
0b
fa
08
18
12
ff
05
18
04
f8
03
fc
1b
0d
f2
02
f5
f5
f8
fd
f0
ee
ed
e7
01
0f
08
08
04
03
f4
f8
f6
fd
fc
f9
03
00
ff
fa
01
0c
1e
09
f7
fd
16
28
0d
f3
0f
0a
fa
00
0f
0d
07
fb
f8
08
fc
01
f4
f2
f9
fb
fa
f1
f1
09
03
ff
fc
f3
0d
19
0f
06
13
1c
0b
02
fd
03
10
02
fd
f7
02
11
f8
f2
e5
f9
0a
f2
f5
ef
f1
02
1e
0e
09
0b
fc
02
0c
09
fc
f3
07
09
10
fd
05
0f
f7
0b
fb
fa
0e
07
fb
04
f1
11
f5
e6
04
09
0e
fa
f0
fa
17
fa
fb
e4
f6
fe
06
09
fb
ff
07
11
0e
0e
0d
08
04
07
ff
00
02
0c
fb
f2
09
04
0a
f0
ef
03
0d
02
f5
ea
e7
07
01
f7
f8
f9
fb
f5
f5
02
0a
04
f5
f9
fa
02
fc
ef
08
17
01
ff
fa
1e
08
00
08
ea
29
1c
e5
f2
ee
f6
fd
02
f8
fb
02
0e
0e
0c
08
01
0c
09
0f
fc
0c
06
0b
12
ff
03
fc
09
17
fe
f9
f6
f6
f9
04
fe
f1
f1
fc
00
f9
02
00
fe
f4
f4
f9
f7
f4
ef
f1
fb
02
fe
06
fa
f8
ff
f5
fc
fa
f5
ee
f0
f6
08
0c
06
f5
01
05
09
04
06
01
04
03
16
ff
f7
f1
e8
e9
0a
f8
f1
ee
ec
02
0a
fb
fb
f6
16
0d
09
f8
f1
08
fe
08
05
f6
fb
e8
f3
f5
f4
fa
ec
eb
fa
f1
fa
fc
e6
d9
02
03
f7
ff
d7
ef
fd
ef
fa
eb
d4
ed
f4
e2
d6
e5
ed
03
f5
e6
f3
04
0b
07
10
fa
09
07
0b
17
04
0e
0e
03
0e
18
1a
ef
01
fb
e8
f8
0d
13
13
08
08
15
ff
0a
0f
11
09
f5
f2
fb
09
fb
fa
f4
f2
03
fe
0d
fb
fa
0a
01
fc
0b
02
09
08
de
01
20
f9
15
03
ef
13
00
fb
20
10
ed
e1
f2
ff
fc
0f
05
f3
08
fb
06
02
e8
02
3c
fa
f0
08
0e
16
37
fd
00
16
0a
11
13
f3
02
ed
04
f5
f4
08
ff
f4
fc
02
06
1a
f8
02
0d
07
14
08
00
0d
f9
e4
0c
11
fc
12
1b
03
f5
06
06
09
06
f9
fe
f1
ed
08
00
00
ed
e2
f5
05
04
ef
ec
f0
fc
07
1a
ff
f5
f9
06
0f
03
fa
fd
09
05
14
00
fc
02
ee
f9
03
ec
f6
ec
e7
0f
f3
09
fa
f8
06
ff
ea
f5
e2
f2
ee
e4
fb
f5
e2
e6
f4
f6
09
f6
e7
f9
f8
1c
0d
f1
1a
11
fe
05
0e
16
08
02
05
0d
0d
fc
0b
06
0b
0b
0a
06
07
06
fc
0d
19
0a
fa
0d
09
02
f7
f9
07
0c
02
f0
f6
02
fe
01
e5
f1
08
04
f8
e1
f8
fc
fa
e9
e0
fa
ff
f4
f3
f4
f8
04
06
fe
f5
00
09
0a
0a
f3
05
11
05
fd
fd
05
0f
0f
0a
20
07
0d
07
03
0d
07
10
11
15
15
0a
0a
09
12
12
08
01
fd
03
0c
0f
00
fc
fe
03
03
fa
f9
00
02
01
0b
0d
0e
0d
05
02
03
00
fc
fa
f8
01
f6
fd
04
f2
fe
06
03
03
11
08
03
ff
f9
04
ff
f5
fb
fe
fe
01
fb
fb
f7
ff
08
fd
ff
f9
08
08
f9
f6
f5
14
10
19
15
14
0d
09
08
ff
fd
06
05
fd
fb
fb
02
00
fd
00
06
01
00
fa
ff
00
ed
f0
fc
f8
fb
fa
ff
00
fd
fc
fb
04
02
f9
00
ff
03
02
00
03
01
0b
07
06
09
ff
ff
03
00
f4
fa
03
fd
05
fe
f9
02
05
08
05
ff
01
fa
05
fe
fe
fd
fd
fc
f2
fc
f2
02
0a
12
01
fe
02
04
0c
fc
fe
fc
ff
f8
fa
04
fd
fb
f8
fb
03
0b
03
00
fb
ef
ee
fc
0d
04
fc
fb
00
08
00
ff
08
07
ff
05
0e
11
11
06
06
0f
21
1c
10
f7
f9
f5
ff
fe
f0
fb
fe
03
ff
ed
01
ff
fd
fd
ee
fd
fc
02
fd
ea
f3
fc
0a
f7
02
fc
f4
00
00
0d
f9
f2
fc
01
0b
fe
f9
fd
07
0a
05
ff
02
02
05
11
0c
08
fd
fb
fa
fc
08
0f
fb
fe
ff
04
0e
03
0b
06
0a
0d
02
0e
02
07
07
f7
0d
01
06
04
ec
d5
d3
e7
f3
f4
de
e1
f0
fd
fa
e9
eb
fc
fd
0c
08
0b
18
12
09
0a
15
16
0f
13
15
1d
11
0f
0f
1b
18
0a
08
14
08
0e
06
00
0d
fc
fe
0a
ff
fd
f1
f0
fc
f5
0e
0d
08
0a
17
0d
03
fe
00
0d
06
fd
f6
ff
08
fd
f2
ec
f0
00
ef
e8
e3
e6
ea
0c
0c
0d
06
02
f9
01
fe
fe
f5
f0
f4
ed
ec
e7
fc
fb
f4
f0
ef
01
04
06
ff
f7
08
fb
fa
f6
f3
0b
07
02
fb
f5
0e
03
f2
e9
e8
09
ff
f1
ed
f5
f8
f8
f6
fd
f9
fa
05
fd
f0
f2
f7
fe
fc
ed
ef
fa
05
05
fa
f9
04
0b
0d
fd
fe
09
10
0e
fd
ff
08
07
05
0c
07
fd
06
06
09
04
07
0f
0e
10
0b
00
08
0c
0a
01
f2
f7
fd
fb
ed
11
0a
0c
fe
ff
07
0a
09
07
01
f9
fd
fc
fe
fa
fe
f8
f8
fb
ef
f9
fb
f0
fc
ec
02
01
fe
fa
f9
ff
f8
f6
fb
fc
14
07
00
02
07
1e
0e
fd
0b
14
15
08
fb
06
10
0a
02
fe
06
09
0a
fc
fc
fa
0a
1d
0c
0b
10
1d
07
02
00
0b
18
04
fc
ff
08
08
ee
e7
e9
e7
f1
e7
da
da
dd
f1
f6
e3
eb
ea
02
0d
fd
ff
02
13
0f
0b
09
06
0d
fd
01
fd
f8
00
05
05
03
03
06
f4
f6
f0
f7
f9
f1
e8
ec
f1
f2
ff
fb
00
05
00
f2
f8
03
fe
fd
ee
fe
f9
00
f9
fd
0b
0d
12
03
02
0f
12
12
0d
04
11
0f
09
0a
13
14
14
0a
00
0f
11
13
0e
fb
0c
06
09
05
fd
00
fc
fd
00
00
fc
f8
f6
fa
fe
ff
f7
fc
05
fc
f2
ee
f8
04
02
f9
f8
03
0f
03
04
02
08
08
06
05
11
11
0f
05
f7
fd
00
fa
ec
f6
f9
01
f8
fb
fd
05
11
0f
12
04
0d
14
0c
0b
09
08
07
fd
fd
fb
09
06
01
08
ee
fc
f7
fe
0d
f3
00
01
07
1a
f3
01
03
0b
0c
f4
00
fc
fd
03
f4
f4
f9
fb
f7
ec
f5
f6
f6
f2
f7
00
fe
f9
f5
fb
fd
fc
fa
f7
fd
fb
f9
fe
fa
ef
e8
e3
eb
f5
ee
de
dc
f3
04
fd
eb
ed
f9
05
0b
fe
fb
04
03
07
06
04
03
ff
0b
ff
09
04
04
0a
ff
00
04
04
04
01
01
04
06
00
f5
f8
f8
ff
06
fe
ff
02
fe
09
0a
0b
0f
11
fa
06
fb
03
0b
06
10
05
09
0f
07
11
07
0d
0a
08
0a
07
0d
07
f8
06
17
09
ed
f1
07
16
0c
ec
f2
02
0f
06
e6
ed
fe
06
04
ef
fe
01
06
0b
05
07
03
fd
07
16
fc
fe
fd
f4
0d
fb
fd
02
fb
0c
03
00
00
fc
0c
10
08
04
fc
0b
05
ff
ee
f4
f8
0b
04
f3
f6
0c
07
fe
f2
fc
14
ff
ff
f2
03
20
ea
eb
eb
02
02
e4
fa
dd
f7
f7
e8
fa
e2
f9
f1
f5
04
e1
04
01
05
04
e1
10
0a
fb
04
e8
0e
00
fb
0b
0d
03
e9
f5
0a
0f
05
eb
f2
0a
12
03
ef
ef
0a
13
07
f4
ee
08
18
09
ec
f4
fa
02
08
f9
f6
f7
00
03
f0
e7
fc
fc
fe
ea
fb
0b
0a
09
f6
fc
f8
ed
fb
fc
f8
fc
f4
f1
f7
00
01
fb
fb
fb
0f
15
0f
10
00
0d
15
0c
18
01
0a
0c
0c
10
00
01
fb
f4
ee
fc
04
ff
fc
f8
01
07
f7
fe
f6
fe
01
fa
00
f7
05
0d
0d
0f
06
11
08
eb
eb
0c
06
f4
e1
e8
02
f9
ec
e6
eb
08
f4
f8
ea
f6
04
f1
03
f4
f8
02
ef
ef
06
0f
0d
fe
ef
09
15
0e
ff
e3
fb
fe
fe
f2
f1
01
08
0a
f8
ef
09
0f
08
e7
fc
f9
f0
fd
fa
03
05
fe
0b
05
f9
06
01
01
f9
03
06
fb
03
fc
fc
fe
ef
f9
f8
12
0e
00
06
08
0e
09
00
ff
02
f3
f3
e7
e7
ed
0d
0c
fd
fd
0a
14
09
f4
f9
05
f4
f5
ed
ff
ea
f5
06
f3
09
ee
f7
0f
f8
15
fc
ee
0b
fd
0f
ff
e1
fa
ef
16
04
e0
f7
02
04
ea
f0
10
1f
1c
fc
f2
14
22
1e
00
ff
25
2d
28
05
d6
ef
f8
f5
db
05
10
10
13
0e
05
08
0e
0b
02
01
05
0d
0b
fb
fe
f8
00
fc
f4
04
00
0e
0d
0d
0c
06
fd
03
02
00
f8
f3
ff
fd
f4
ed
e9
f2
f6
0b
07
03
08
ff
05
05
03
fe
ed
00
01
fc
fe
fb
0a
02
03
00
14
10
ff
fb
f8
07
0b
04
fe
fb
03
fc
01
f5
f9
f1
fc
09
10
05
f4
01
0d
0a
00
f8
03
0a
07
03
ff
ff
04
fc
f9
f8
fe
05
04
03
fb
fd
08
0d
06
f9
fd
03
02
fe
f3
fa
00
ff
fc
f5
f8
f9
f1
f4
f0
09
0a
09
02
ef
1a
06
05
07
16
f5
fc
01
fe
02
f1
fa
fd
ff
fb
f2
fc
fd
f6
ff
fd
f3
f6
f9
02
ec
f7
f2
01
f6
f4
01
06
17
0c
02
08
0d
1e
11
fb
06
12
15
06
fb
0e
1d
1c
01
ff
03
fb
01
fd
0c
0d
0c
08
05
01
0a
10
04
01
f6
fc
04
fd
f4
e1
e6
f1
ec
e5
06
00
06
03
06
08
02
09
00
06
0f
00
06
fc
10
0f
07
09
08
16
01
07
10
0e
0b
fc
f0
f2
fc
02
0f
07
fc
ff
f9
09
fa
f8
00
02
fe
f5
f3
f9
ff
10
fb
f0
03
1a
f4
f1
f1
e2
f8
0d
05
04
00
1a
1a
0a
13
10
2d
1a
03
fb
01
24
f8
ee
ea
e4
02
f8
fe
f9
03
03
1b
0f
07
07
09
19
0f
0e
10
12
11
0d
0a
0a
0e
de
e9
e8
ec
dd
fd
04
00
04
01
0d
07
04
04
0a
11
06
01
02
0e
0e
0f
02
09
12
f9
06
08
0b
fa
11
0f
09
f5
fa
00
1b
09
fd
f0
06
0b
ff
fe
ee
0d
09
0c
04
fb
ed
f8
00
fc
f6
f4
fb
05
f5
f0
06
fc
05
f6
fd
0f
ee
f2
ea
02
07
e8
e1
eb
04
f3
f2
f9
ff
ff
12
fa
f3
ff
13
03
f8
ef
fd
09
ea
e4
df
e6
e9
06
fd
fb
fb
fc
03
f9
f5
fe
08
01
f8
ee
ed
f7
fd
f4
f0
eb
fe
07
f7
f5
f3
01
0c
05
fc
01
01
0e
09
0b
02
05
19
03
06
07
03
06
fe
f6
f1
ec
03
fb
f3
f3
ef
08
f0
ef
f3
f6
07
fa
fa
fc
02
f0
03
f2
ee
fb
fd
03
f7
f2
ff
f6
f0
f6
f8
f5
06
fd
fd
00
f1
fa
05
00
fd
f4
ec
f3
f4
00
0a
ef
e2
e0
e8
f6
f5
ea
df
e3
f9
00
fe
f5
ec
fc
01
01
02
01
00
f2
fc
fa
f9
02
eb
01
f3
f5
0e
f0
02
f1
f4
fe
06
11
fe
01
f8
07
0c
00
02
ff
ee
fe
02
03
ec
05
1f
1f
1a
06
03
29
30
1d
11
00
0c
1e
14
00
eb
f7
fe
fb
e8
1c
01
ee
fa
0e
1b
f7
d8
e6
fd
18
ef
d5
e4
00
21
f9
e8
f9
0a
21
09
fb
11
1b
04
0e
fd
f3
06
0a
13
02
00
06
09
02
ff
13
0d
0d
02
06
16
0a
fb
fc
00
0a
ff
11
07
00
09
08
f7
e0
e7
06
13
06
d5
d5
f3
06
07
e5
e1
ff
06
16
f9
04
25
17
00
02
09
0e
0d
04
02
0d
08
07
06
01
08
fe
07
02
f7
01
fb
fd
fc
f2
ff
fa
05
f4
fe
ff
f2
e5
07
0a
08
02
fc
07
06
00
04
0d
01
f9
f5
fc
04
f9
ee
e8
e9
eb
1f
13
09
f9
f5
18
0b
05
fd
0e
ff
ec
ee
06
22
ff
f3
ef
fd
05
f2
ec
e8
f0
ef
fd
0a
0b
10
ff
f6
09
0a
12
f2
f7
0e
11
11
f8
f5
13
10
0c
fb
e8
fa
fc
fe
f9
f0
f7
f0
f2
eb
f7
05
04
fc
f9
f0
fb
fc
f3
e9
03
12
14
10
05
ee
fd
02
f9
f1
e5
05
fd
fa
f4
f8
10
19
1f
15
ec
00
0f
14
08
e4
f3
f9
02
f5
eb
f9
ff
02
fb
e4
f6
fb
ff
f7
e9
06
0e
03
fc
ea
f5
fe
f6
ec
f9
00
fc
fe
f2
f1
fc
03
05
f8
ee
f4
e9
ff
24
01
02
ec
f3
07
0b
05
fd
f3
fb
28
09
0e
23
17
17
15
12
1a
14
f9
0e
13
14
08
07
27
23
1a
0c
f9
19
1f
17
04
01
0c
0d
0d
06
ff
fe
0d
14
04
09
02
fa
0b
0b
03
01
f8
07
08
f6
ff
f8
f9
00
fc
f7
ff
03
06
08
05
08
15
08
0c
04
f1
ef
f9
03
01
ff
f9
0a
05
fe
02
05
03
0b
fa
f8
00
0d
09
06
f4
fc
f5
ee
f5
0b
00
03
03
13
1b
09
09
08
0f
11
0a
16
fa
00
07
0c
19
f7
f7
00
04
f1
05
03
f2
f7
07
0b
fd
fa
f2
f2
ec
f1
fb
fd
16
0c
f9
fe
01
10
03
f9
fc
fe
fa
1c
0b
ed
dd
e0
23
05
e3
d6
e6
1c
04
f0
e6
ff
13
03
f1
f8
07
ff
f9
f2
f3
fb
0e
00
ff
f2
ef
00
ed
ec
ee
f9
ec
df
db
e0
e9
02
f3
f4
f0
f9
08
ff
01
f7
01
07
f8
f2
e5
ee
fc
eb
f1
ef
f7
fb
f2
fb
f3
01
fa
f1
f3
ed
fe
fd
fc
01
f1
03
fd
00
ee
ea
0c
0f
0c
f1
e1
f9
00
ef
ef
fc
01
09
f0
ec
f6
fe
0d
09
fc
e7
f3
e5
f3
f8
fd
fd
f0
f9
ee
ee
f5
ee
ed
eb
ff
ff
f8
fd
fc
0a
07
03
05
03
06
02
2c
29
1c
1d
1b
fd
fc
f9
0e
0c
fe
f7
f3
f9
f6
13
0f
04
ff
fd
12
0e
0c
11
19
02
04
06
1a
1d
f5
f6
e7
08
fd
ff
fd
ef
fd
ed
0b
08
fa
07
f7
07
06
00
0b
06
f2
fb
fe
14
14
09
f3
f9
fa
f4
05
ef
f1
fd
fa
f9
ed
ee
02
00
08
08
f8
f5
fa
f9
f9
f5
f0
f2
fd
f9
f3
ed
f2
00
f0
e3
e8
ed
03
f1
e3
eb
ef
05
fd
f4
f5
f7
fb
1b
19
fa
ef
0e
32
36
02
f1
02
20
2b
06
e4
ef
14
20
05
f0
f0
07
0d
00
f7
02
00
fe
02
16
fa
fc
f0
fd
0e
fd
02
f5
f1
ff
fc
f8
eb
e7
fd
03
ff
01
fd
0b
f1
ff
0d
01
09
fb
fa
04
f9
fe
00
ff
04
07
00
08
f7
f9
01
f5
0a
06
ff
f9
f0
09
fb
f3
fc
03
11
fb
f3
ff
08
14
01
f6
fc
ff
0f
03
fb
02
00
04
fc
f4
f7
f4
09
0e
00
f5
fe
04
06
fa
ee
ff
fe
04
fe
ea
f7
f9
08
05
fa
fe
05
10
11
0b
0b
eb
fa
0b
0f
09
eb
eb
05
0d
0c
ee
f2
01
07
05
fc
f8
fb
00
03
fb
ff
fb
fd
ff
32
2e
1a
0e
01
17
19
08
ff
f1
fd
0f
03
f9
f8
fb
05
09
0c
03
00
fe
00
10
07
f8
f5
fc
f8
fc
f8
f8
fc
fb
f7
fb
f7
ff
04
fe
f6
f3
fa
00
05
f7
f5
fc
04
02
f3
f7
ec
f3
ee
0b
06
f5
fc
f0
17
0a
05
01
f3
17
0e
0a
10
fe
08
ff
fa
03
f5
1a
08
03
11
19
0d
05
fd
00
0e
0e
03
04
f7
04
06
fc
fb
fb
fd
05
ff
f8
f4
fd
fc
fb
fd
ff
08
f7
f5
fd
04
01
05
fa
fe
02
06
02
f7
f9
fb
03
fc
ee
f4
f4
fd
07
15
09
fd
ed
fc
03
06
fe
fa
fe
ff
fd
f9
00
09
f9
f2
fe
08
04
fb
ef
fa
07
0b
f8
f7
f7
06
14
f6
f2
fc
0b
0c
fe
ef
f5
fd
09
f9
f5
f6
fa
fc
f6
ee
eb
e9
f2
f6
f2
f2
fb
f9
f5
f6
fb
02
ff
fd
f8
f8
fa
01
fd
f8
fb
f8
f5
f1
f3
f8
f5
fe
07
00
0b
04
f9
07
02
07
00
f3
f9
f7
09
fa
fa
00
02
12
0a
f2
0b
06
19
0e
12
04
00
15
0c
06
03
01
08
01
0a
09
03
fd
f2
05
04
f6
f6
f0
04
ff
f1
f8
f2
f0
fd
02
16
0f
f2
02
0a
1b
13
ea
f9
ff
0f
06
fd
0f
0f
1c
10
00
0f
11
1a
14
fa
06
07
02
08
fd
06
11
02
fe
f6
fd
0a
fc
fd
fe
fb
06
fc
f8
f7
fb
02
fb
f5
06
11
07
08
fb
0e
19
0f
13
01
00
09
05
0a
06
f7
f8
f3
fe
01
e7
ee
f5
06
04
f8
f7
00
04
04
00
fa
05
06
09
07
fd
03
04
0d
0c
00
fe
fe
05
0f
09
02
fd
fa
e9
ee
f7
01
05
f4
f9
f9
01
00
09
0d
0b
00
f6
03
fc
f8
fc
f1
0d
08
02
00
fa
fe
02
02
f8
09
00
08
02
fc
07
f3
f6
ff
fe
fe
f6
fa
06
08
fd
09
05
04
02
f9
0c
f8
f5
f6
f5
0e
f3
ea
f3
f4
1b
00
f4
f5
f9
0f
fb
f4
f9
f9
02
fe
f6
f8
f2
0e
02
ff
fb
fb
13
04
fc
01
05
0f
0d
04
fc
fc
01
07
02
fd
f5
fe
fa
f6
01
f6
00
08
fd
f8
fe
f1
fe
f5
f8
f8
f2
fd
fb
ff
fc
f5
02
ff
04
07
f8
02
02
02
06
03
08
07
f8
f3
05
05
07
f6
f7
06
ff
03
f7
03
04
f1
f6
fa
05
0e
02
04
01
0a
f1
f2
f9
f3
f3
fd
ff
f9
fb
f8
09
02
ff
fc
fd
12
07
04
05
06
fc
f0
ed
f0
f5
00
0b
0d
03
00
fa
0c
15
0c
03
f4
08
13
0d
02
ef
03
0d
0b
02
fc
ff
08
08
05
f4
06
08
ff
f9
f2
03
0d
05
f8
f8
fd
08
03
01
fc
f6
fc
fe
03
fe
f9
fc
fb
02
d8
f5
02
0a
fd
e0
f7
07
07
01
e7
ed
fd
01
03
ee
ed
fa
02
02
f7
01
05
08
ff
ee
ed
02
0d
15
01
fb
00
0a
1a
08
01
f7
f8
09
19
14
06
f6
f8
14
1c
10
f9
f1
f6
f2
e9
e7
fe
fb
e7
da
d8
f2
07
ec
db
da
ed
17
16
03
02
02
15
15
09
08
ff
00
fa
f9
f4
f5
14
03
fd
f7
f9
1c
0c
00
ee
ef
19
08
06
fc
fb
05
f9
fa
fa
f8
01
fd
f5
fd
04
f4
f4
f1
fc
ff
f5
f5
f4
fe
03
02
f9
f6
03
05
f9
fc
f2
f5
00
f5
f5
f5
01
09
fb
f5
f5
fe
05
04
06
0b
03
02
0b
07
03
fb
f3
09
0a
07
fa
f6
f0
f1
07
04
11
ef
fa
f7
fa
0b
f6
01
07
08
16
f2
01
fc
fd
05
f2
fa
f8
fa
02
ea
ea
e4
01
19
f6
fd
f0
fc
12
f8
fb
fb
ef
10
06
04
04
f6
0d
f7
f8
f8
fa
1e
01
f5
e6
ef
ec
15
13
f6
fa
f6
15
18
00
f6
f8
13
1c
0c
f7
f0
1d
26
1c
0c
f1
fb
15
01
00
11
eb
0f
13
f6
02
e7
04
1a
13
07
f0
04
11
13
0f
ef
0a
10
17
0a
0f
17
1c
19
0d
01
07
08
fd
f1
04
0a
05
00
f5
01
01
f7
f9
fa
fa
ff
f5
f8
03
04
18
14
19
0c
0c
0e
0d
0c
01
13
10
08
06
fd
0b
04
ee
f0
ef
fa
fe
f8
fe
ee
03
04
fa
fc
02
f3
f1
e8
e7
f4
fd
03
0e
f2
f1
02
06
08
fd
f4
fd
f9
f4
f3
fc
04
09
0e
08
0c
fc
fe
fc
ff
07
f6
01
0b
0a
04
00
09
07
0b
0b
0c
05
f8
ff
04
fd
f3
ea
0d
0c
0a
0a
03
fb
ec
f9
fd
0f
18
02
f8
f3
09
0b
ff
f9
f9
06
00
f8
0e
0a
0b
14
1a
0e
0a
06
14
21
0d
fe
f7
fe
0c
f5
ef
f3
f5
f8
e7
e1
e6
e5
f4
fb
fa
03
fb
f1
f3
f8
00
fb
f5
f0
fe
09
02
00
f9
05
10
08
fd
01
10
0b
13
08
19
0b
f3
12
19
22
0d
ef
fd
1f
12
fd
dd
e8
0a
11
02
e1
ea
0f
0f
05
e1
f1
0e
16
00
fe
f3
ec
08
15
1e
08
04
0b
1c
25
12
06
07
0d
10
01
fd
ee
03
08
01
eb
15
03
fa
0e
21
01
f1
dd
f5
09
f9
f5
e3
fe
05
fe
f6
ec
fa
fc
13
11
02
0d
0b
02
07
f5
ed
f2
05
f4
f3
f5
f4
fe
ef
eb
f4
04
00
eb
e5
e0
fd
fc
e9
ea
f1
f5
e6
f5
f9
19
29
e7
f8
01
19
29
f6
ff
fb
0d
23
f5
fd
fb
0b
19
ea
04
0a
14
1a
f2
f6
08
fe
fa
fa
f8
01
fc
fa
f5
fd
08
0b
08
fc
04
fb
08
14
fb
03
fe
12
12
04
05
fd
f7
e2
18
fd
e8
e7
e5
1a
01
fd
f5
f7
1c
09
ff
fa
f0
1b
0c
09
05
09
0d
0d
fb
ff
f0
10
0f
0a
1b
16
07
0e
03
08
07
f9
f7
ef
f1
f7
e4
f4
f7
fc
fe
01
ea
e6
f2
17
ea
de
f0
03
19
f0
e7
e3
f5
1e
01
ec
e9
f1
10
ec
e7
ec
f4
0f
e7
ee
f3
02
00
ea
fa
00
0d
0c
ed
f8
ff
06
0a
f6
f1
f7
fb
00
ed
f3
fd
03
07
0f
f5
fb
0a
0a
0a
fe
fd
07
11
f1
e1
e2
e8
ee
f0
e8
e2
d9
e7
f3
e6
e3
d7
df
f7
ef
e7
f3
01
f5
ea
f2
f0
ff
ff
f0
f6
fa
07
fc
f0
f6
f0
09
01
fb
f8
f3
03
01
f8
f5
f6
03
07
fe
ff
fd
04
18
fd
f0
f3
05
07
ef
dc
e1
f3
ff
f8
f8
f3
f8
f4
f1
f3
f9
09
fa
f4
fd
0e
0b
f1
f5
fd
0d
12
f4
fa
03
14
14
05
17
1c
2e
17
04
05
01
0b
0c
02
04
fe
f8
fe
fa
fc
ff
f5
f5
fc
03
0f
08
01
04
08
0d
0d
08
0a
0b
1f
11
f0
fc
fa
08
04
eb
f8
f7
f7
fe
f3
fd
f0
ef
f0
eb
fd
01
02
fa
f7
15
15
02
fb
e7
fd
07
04
0b
f3
05
0f
14
05
e4
0c
0b
10
03
ec
fa
05
0c
0a
00
fc
ee
ec
e8
e9
fc
01
05
00
00
0a
06
01
f8
f9
08
fd
f8
ee
f7
09
15
16
0a
09
08
10
17
0e
f6
05
09
10
12
02
16
0a
01
fc
f9
19
06
fb
ed
f8
fd
f3
f1
ea
ea
fb
fc
fc
fe
f5
05
01
fb
f8
f8
f8
01
08
07
05
06
09
0c
13
0f
05
00
01
09
08
13
07
04
f9
e4
0c
08
0b
0c
ee
1a
0c
08
08
f3
10
ff
fc
f7
f1
13
10
0a
03
e9
f7
08
03
04
f1
06
15
16
15
f8
01
0d
0e
06
f7
fe
0f
17
13
f4
ff
14
0c
08
02
17
13
0e
04
04
0e
09
01
08
02
06
05
ff
04
07
fe
fc
02
01
fd
fa
02
04
fe
fa
04
0d
02
fa
04
0b
06
fa
fd
0e
0d
fd
f9
06
15
fd
f3
f4
0c
13
f3
ec
f1
07
0f
ec
f4
ec
fc
e9
f4
fa
f0
0a
f4
fd
05
f7
0d
f7
05
04
f8
fb
f2
fa
f9
fa
f4
f6
14
0b
06
01
06
06
00
f6
f4
fd
00
fb
f5
f2
ff
04
f8
fb
f7
05
08
02
05
02
0d
04
01
ff
07
f3
ff
06
09
08
f9
ff
02
0d
08
f9
ee
ff
08
05
f1
ef
fb
fe
01
fa
01
fb
f7
09
11
12
0c
03
13
13
f4
ed
ee
fd
f6
fe
fd
00
0a
08
f2
e9
ee
05
0d
08
fe
fd
00
04
f5
f1
f4
f3
f8
f2
f3
ef
f8
f2
fd
fb
f2
f9
fe
07
fb
f6
fe
03
fa
07
fd
fa
f8
f6
06
00
02
05
fc
04
00
01
02
02
03
06
06
02
06
fc
f3
ef
ef
f0
02
05
08
f6
f8
06
03
02
f9
04
1a
1b
1b
09
03
0c
0f
14
f6
01
14
21
24
03
18
10
00
07
12
06
fd
f2
f8
03
ff
fe
ea
f2
fc
06
00
f4
f9
fa
fa
f0
e4
ec
f7
f0
fc
00
06
f6
e5
f8
fa
00
f0
02
14
1e
18
07
f6
07
11
0e
fb
e6
f9
ff
fe
f2
f7
fc
de
f5
ea
00
05
e9
fe
f4
f2
f6
ef
f8
ef
ea
eb
f5
f4
eb
fa
e8
fb
fb
01
dd
ee
f6
f9
de
fc
12
1e
1c
01
07
1e
30
25
0a
f0
0c
1c
0c
f0
de
f0
fb
f2
d7
f1
fa
ec
04
f2
f4
04
03
06
f7
f3
fd
f3
fd
e8
00
09
fa
03
f7
00
00
01
06
f9
0b
09
fe
07
04
ff
f0
f2
f5
fb
09
fb
ef
f4
01
04
06
f8
f3
fa
06
07
07
01
0b
f8
07
09
10
05
01
08
0d
11
02
07
0a
0b
0c
05
0c
0f
0c
07
02
08
18
11
09
fd
fc
07
05
08
f4
ea
03
0b
07
fe
e6
ff
00
fe
f7
fd
0a
0e
0e
f7
ea
fb
fd
00
ea
e6
f0
e9
fc
f2
e2
e7
e2
f5
eb
eb
ea
e9
f5
ea
e8
ee
f7
00
e9
f8
09
15
07
f5
11
12
04
0d
0c
ff
00
f8
fe
f5
f4
f7
f6
f9
f1
ff
ff
03
01
fc
fb
fd
00
08
fb
e8
ee
f3
f2
e8
f3
fc
f9
fe
02
fc
f9
01
00
ff
04
f4
fa
ff
fa
0b
03
0a
09
0e
ec
04
10
10
ff
0a
16
1b
22
19
13
14
1a
16
14
08
0b
0f
11
09
03
fc
09
05
fb
f7
03
f0
11
fd
f0
ff
fb
0e
f8
f3
02
fe
0f
f8
04
08
f6
06
04
f7
02
f6
08
f9
ff
06
ff
fd
f8
f3
fe
ff
fb
ea
f1
f6
fb
fc
ef
f8
00
03
05
fc
08
ff
0a
0f
0f
01
03
12
00
f3
0e
0a
13
08
10
20
05
06
fe
0d
1f
05
fe
f0
09
12
ff
ed
e4
fa
10
15
13
0d
fa
1a
11
0b
0c
0e
19
04
fc
01
07
03
fa
eb
f0
f4
08
fa
ee
ed
f9
0c
03
18
0a
19
13
00
0e
04
13
14
03
0b
01
0a
06
01
02
f9
06
0e
0c
00
04
12
f5
fd
00
0c
fd
07
14
09
04
f7
09
0f
00
fb
f7
ff
fa
eb
e8
f5
0c
00
f5
fa
fc
e9
f6
00
f5
f6
ff
01
03
ea
fc
1c
0e
f7
eb
12
1c
0f
f7
f6
19
1a
1b
10
0f
17
08
06
07
0c
04
f8
f8
f6
f5
f7
07
fc
f0
f4
fe
13
03
f4
fe
14
0a
fe
f6
03
12
01
00
f4
08
ff
01
00
fa
09
fb
ff
fc
ef
f6
ed
03
f5
ed
f6
f4
0a
04
00
01
f6
ea
01
f7
04
f3
e9
05
fb
04
f8
dd
fe
f5
08
fb
e4
fc
fc
10
11
f0
f5
f0
0f
0c
fa
0c
2a
26
e5
02
19
0e
00
f0
ff
05
05
00
f9
02
02
04
04
ff
f9
01
06
0a
01
f7
fd
f4
e8
e2
f9
08
fd
f5
e8
fe
0d
f9
f8
f9
fe
05
03
fe
03
fd
08
03
03
08
ec
e5
05
13
16
01
e7
f1
09
15
fc
f6
fb
09
12
00
ff
03
02
06
06
0a
04
02
fe
0a
02
18
0d
fb
0a
0f
00
f0
fb
01
03
f1
ea
f7
f8
f5
f0
ee
fa
fa
f8
eb
f1
f6
fc
04
08
05
fa
f6
04
02
06
01
fc
06
02
0a
03
fe
0b
0d
08
07
f9
07
15
0d
03
f2
f3
07
0d
fa
f0
fd
18
1b
02
fc
02
0c
0d
08
04
fc
f9
ff
06
04
f7
ef
ef
ef
f2
ff
0d
09
fb
f2
fe
04
02
f5
f0
fa
fb
fe
f3
f4
00
01
f9
f8
f6
fd
02
ff
f1
0d
0a
03
ff
04
05
fc
f6
f2
f4
01
fd
f6
f3
f5
ff
ff
01
fa
f6
f7
f8
f7
eb
e8
f1
00
0b
13
02
fd
01
01
f5
01
04
ff
fa
f5
08
fb
fa
f5
f7
f8
fc
fa
f5
f6
f2
ec
04
16
1a
fd
f3
10
13
09
f3
f4
04
0b
08
fd
fb
00
04
ff
00
f2
07
05
fa
f8
05
03
04
ff
f6
ff
f9
f3
ec
f4
00
fe
f8
f6
f7
00
04
02
05
04
05
0c
0c
09
00
fc
fb
00
06
f7
fa
01
0d
10
fe
fc
f6
fa
fb
f6
09
fe
fa
fb
fc
10
02
fa
00
04
07
f4
ee
f4
08
11
f8
f9
f7
10
0d
f7
07
ff
06
12
00
06
fd
fe
02
f5
f7
ee
ec
fc
fe
05
0a
fe
fe
ee
ec
f1
f3
03
f2
ed
f1
f7
13
01
f8
06
0f
2a
13
07
13
1f
01
09
09
0e
07
f0
06
14
24
09
f9
03
0e
0f
02
fe
f6
fb
fc
f8
06
f6
f7
f3
fa
0d
1f
2b
0a
f1
13
16
17
f5
ee
0a
06
02
f1
fe
f9
fd
f8
fb
0a
ea
08
02
02
0a
e5
f5
08
ff
ec
f2
f9
ff
fa
e8
f9
00
05
ff
f2
05
10
15
18
0c
fa
06
14
19
0d
ee
fe
f9
fb
f3
ea
ff
06
03
fb
ef
f8
f7
f6
f0
f6
f8
fd
fb
ea
fa
fd
0a
03
f4
02
fc
00
08
1c
fa
14
16
1f
1c
01
0f
1c
18
0d
06
01
06
ff
fe
fe
ed
e4
e6
f6
fa
07
13
0c
f5
e4
0f
21
1b
ff
f8
11
0d
05
f3
03
07
04
03
02
07
05
fe
f5
ff
fd
fb
fc
f4
f2
02
fc
eb
ef
f5
f8
05
00
02
02
f0
fd
01
03
ff
ef
f6
fd
01
01
f3
ff
16
25
16
05
0b
08
04
07
0b
09
ff
fc
08
0e
03
fc
04
12
15
04
f5
02
10
f4
07
0d
06
06
e8
f4
f8
ed
f3
f7
f7
02
00
fd
fd
02
04
0a
02
ff
00
00
02
01
09
fc
0c
0f
fc
f2
02
16
10
ee
f6
0a
0d
fa
ec
06
fc
fc
f5
f3
03
f8
f3
f3
f5
02
fd
f9
e7
d9
16
08
fa
e5
e4
11
05
f9
f0
f6
06
03
01
02
03
13
14
0c
09
06
f9
f2
03
05
f1
10
0d
00
f3
f4
05
0a
07
ff
02
f8
03
01
03
04
02
0d
02
03
fa
08
04
fe
fc
0b
0a
03
f5
ec
03
01
f5
f4
f2
f9
fa
f8
f4
fc
fd
fb
04
fe
00
06
fb
e8
ea
fb
19
05
f9
f0
fd
0e
03
fe
fd
fa
05
03
ff
fa
02
02
0c
07
06
0a
03
00
01
0b
0b
0f
00
03
fe
fc
06
fa
fd
fc
fb
02
f5
fe
01
04
03
fd
07
12
15
0c
f0
00
21
2d
0f
f5
06
29
2d
0a
fd
06
17
11
03
ff
fa
fd
f8
f7
02
0c
10
0c
ff
ed
f5
ef
eb
f1
fd
03
ff
ee
ef
09
fe
fe
ef
f4
fb
fd
fd
f5
fb
ff
f9
fa
f2
f5
f0
f4
ea
ee
fc
ee
f4
de
f0
11
fe
f4
ee
f6
0f
07
f7
f2
f2
06
12
06
f8
f7
09
f3
12
16
1d
2e
02
09
07
0f
26
ed
fa
f1
f4
fe
ed
f5
f4
f6
f2
fc
f6
f0
fe
f7
f5
f6
08
fb
08
e2
fd
ff
f8
10
fc
11
f4
f9
0f
05
00
f2
ff
ee
f6
f1
f7
00
f1
17
fa
dd
ed
e4
10
ea
ee
05
e5
01
f9
1f
03
da
0c
29
22
f3
e5
2b
32
fd
f5
e7
fb
07
16
06
1b
fc
f9
04
fe
05
ff
00
f9
f7
fa
fe
0f
09
0c
0b
01
23
29
20
05
eb
fc
16
13
ed
ef
0c
19
0d
e5
f4
12
17
0b
e9
f0
0c
12
0b
e8
e4
f5
fa
f4
ea
07
06
f8
04
2b
f6
03
fd
e7
00
ff
0b
f6
ee
fb
18
0e
ee
08
1a
26
06
eb
06
1a
f5
e8
f4
05
e6
ed
f8
fb
f8
e6
f8
13
00
ea
ec
09
0b
08
f5
f2
16
f5
03
07
e9
f9
01
05
04
0a
fb
05
08
f9
0c
07
10
02
07
13
0a
02
f6
ff
0b
0b
05
fe
00
07
25
fb
f1
f4
05
03
f0
0c
17
22
05
f4
02
0b
0f
08
ff
f7
04
04
fa
f8
fd
ff
00
11
16
13
02
fe
fb
10
04
00
0f
ef
13
00
00
11
f0
ff
f2
fa
ff
f8
f6
ec
f9
03
ef
fb
14
11
eb
e5
fd
16
02
e3
e8
fe
0e
f7
e4
ed
ff
00
f8
f6
04
04
02
10
0d
28
0a
eb
f3
21
2a
08
e7
ed
20
1c
02
da
ef
1a
17
01
df
fb
20
0c
f5
e5
01
19
0d
0f
ff
fe
2e
15
fe
f6
01
2b
0b
f2
fe
0c
06
06
01
04
f9
fa
0a
1e
17
16
06
0a
ff
ea
f4
0c
1c
12
fd
08
17
10
08
e9
f2
05
0c
06
e7
ed
08
0f
0d
fc
0c
26
f8
f2
07
01
0a
f3
f8
1b
d8
e3
fe
0b
0d
e0
10
23
09
e0
10
23
0d
fc
f8
0f
f2
fe
e6
08
1f
f9
e8
ee
0b
13
ff
dc
0c
0b
e8
f9
ef
11
03
f3
09
d8
ee
03
1c
26
e9
ef
ec
ea
e7
ec
ed
f3
06
12
ea
eb
ff
fe
01
e1
e2
f6
fc
f7
e6
f4
05
10
fd
01
ff
eb
e0
f0
0f
fe
e9
f7
f9
1a
fa
f3
09
08
1b
06
01
0a
fd
0f
0a
fc
ff
fd
25
0e
0c
1c
17
1d
02
f8
19
10
fb
f2
09
08
fa
e2
02
01
f1
fd
e3
04
f1
f4
04
f5
01
20
06
fb
e7
0f
3a
09
ff
fe
2a
1e
fa
14
10
22
f1
f6
12
10
0d
fb
0d
04
e6
f8
07
0c
06
e8
01
04
fb
08
f4
13
09
f2
0f
01
04
f4
f5
ff
10
06
f2
f8
09
d8
e4
de
cb
d4
fa
0e
ff
e4
f6
f7
fb
fe
ea
f9
ef
ea
e5
f0
e9
f6
ec
eb
f6
e7
f7
fb
fc
f9
03
0e
0a
1d
fc
09
02
f4
fe
eb
03
04
f1
da
ea
fc
f9
ed
e5
e5
e3
f8
16
02
e2
1f
0d
21
fe
e4
18
0f
00
ea
03
11
19
ee
e9
1d
f3
18
f6
09
1e
e6
ef
e2
e4
ff
1f
e2
f1
08
07
18
ec
fe
01
fd
15
f5
fe
01
0c
15
f1
01
14
18
1d
e8
d8
d4
d3
db
ea
e9
f4
f6
ea
ed
02
17
0b
f7
01
18
0f
0a
0a
18
27
1e
1c
0e
08
10
14
25
f6
05
02
02
14
ea
07
f5
00
06
00
04
f0
f3
ec
05
07
0c
fb
09
08
00
0d
07
f1
02
0d
0e
fc
e1
02
0d
ed
f0
1a
22
f8
dd
fd
30
0c
e3
f2
1c
17
03
01
09
13
0d
f8
20
06
fe
0f
0e
02
e7
f7
08
fe
e7
e7
fe
f7
e7
e5
f0
fd
eb
df
07
11
0a
f9
09
0a
1b
08
07
0b
0e
07
fa
17
0c
f7
fa
09
1a
f3
f9
fc
1a
17
f5
ef
db
e8
fa
fb
f4
de
f3
00
f5
ea
f4
12
0f
fd
e7
fe
09
11
08
ef
fc
f8
0f
0c
30
18
1f
02
04
21
0d
02
eb
f2
32
0a
f7
08
fb
1e
0a
f5
f9
f8
0e
0f
f9
f7
ee
fc
e8
f0
09
13
0f
ef
e7
09
1a
12
ff
f7
0e
12
08
fe
03
0b
0d
f2
fb
fe
04
03
ed
db
f1
01
fb
f4
e5
f0
ff
f6
f4
f1
f8
f2
eb
02
03
10
02
f4
11
0c
18
0e
02
2e
23
ea
f2
0b
27
1a
f2
ee
02
06
05
03
f7
fd
05
00
10
01
13
05
f5
02
04
1b
f4
f9
09
11
04
fe
fc
f8
10
09
fc
0e
f6
05
fc
fd
18
04
00
f5
fd
17
0f
0f
f9
ed
eb
f4
fb
06
f9
f8
fe
03
03
05
f9
ff
00
04
10
fe
03
09
05
0e
0f
09
11
0f
ff
fd
02
fb
04
03
f6
fc
f4
0b
08
f1
f6
eb
0e
04
f2
fa
eb
fb
fe
00
0c
fa
fc
02
0d
fe
f4
0a
03
01
f0
07
11
fa
ef
ef
05
0e
ee
e3
ec
00
fc
ea
e1
e7
fe
f6
fe
f9
ff
04
02
0a
fd
fa
fe
0d
0f
fe
fe
09
11
06
00
00
0b
09
f5
f2
fc
fa
fb
fd
ef
f2
f9
f8
02
f0
f2
0c
fc
03
02
f0
01
ff
f8
02
f8
f5
fa
f4
0b
fe
f5
fa
fc
fd
fb
ff
10
0b
fe
01
03
0d
07
fa
f6
04
0b
02
f6
f6
06
10
05
f3
ed
0a
0f
e5
f3
f3
f9
f7
fc
00
ff
fb
00
09
06
0c
05
11
03
03
0b
03
05
f4
f8
06
fe
fd
fb
04
fc
f9
fa
02
07
13
ff
fe
01
05
12
fa
f7
0b
11
1a
09
ff
1a
1e
21
18
14
18
11
fc
01
f7
0d
0b
ff
17
02
f9
09
06
15
00
fb
0f
11
08
f9
f4
ff
f8
fd
ee
0f
1e
1a
0b
0a
07
09
07
01
f8
fe
f8
ec
f0
f8
06
fd
f5
f7
04
0d
05
04
02
0a
fb
f2
04
e6
fa
03
09
18
ea
f9
fe
13
1d
fa
fa
01
0c
00
01
01
05
fd
f3
fd
03
ff
f0
0c
1e
18
03
fd
0b
27
03
fc
01
0e
1d
f6
fb
fc
01
0a
ef
04
fc
ff
00
f2
fa
f8
0f
0a
f6
f9
f6
ff
0a
ff
01
f4
ec
01
01
08
fa
ef
f7
f9
03
f6
fd
f6
ee
f8
fa
ed
f5
f7
01
f0
e8
fa
05
06
fa
f2
00
01
fd
fd
f4
fe
ff
fa
fc
01
ff
fe
fb
f4
f2
f1
f9
00
02
fc
fb
fe
f3
fc
fb
fb
f7
f2
fd
01
fb
02
ec
f6
f7
f3
f6
f0
f0
f1
03
15
e8
ea
f0
f5
00
fa
ef
f2
f9
fe
02
f5
f7
fd
02
01
fa
ff
06
01
da
df
00
06
f0
e9
f2
00
04
f9
f2
f6
ed
f9
fd
f9
f9
f2
f4
f5
04
03
05
fe
f8
07
fd
14
f3
f0
fe
f9
fe
f2
ef
01
f7
f8
f1
fc
08
fd
ff
ff
0b
02
fe
06
fd
03
0c
08
f3
08
05
0a
fd
f6
07
08
ff
fa
04
04
fe
f9
f6
05
02
fd
fe
f8
01
02
07
fe
14
0c
f4
ed
f4
0c
00
f5
ee
09
0b
02
08
00
fc
f2
f1
fc
ff
f6
f2
f0
f5
f6
eb
fc
31
1f
04
db
f4
1f
15
f6
e4
f7
fb
00
ed
01
19
02
05
f4
18
26
0d
09
ff
fe
08
14
0e
11
07
10
1a
20
14
03
fd
08
0b
ff
fb
f9
f7
fd
f9
f2
ee
ee
f9
fe
04
ff
f7
e7
f4
00
06
fa
f4
f4
fb
03
08
01
fb
f4
fb
fd
fc
f9
ea
f1
fc
f1
fd
11
11
f9
ed
ff
0d
1c
15
ff
08
fe
04
08
01
0a
fe
ff
fd
fe
0c
ff
f9
f6
fb
0c
05
02
ea
00
07
ff
08
f4
05
06
fe
0c
01
09
08
13
14
14
11
10
0e
0f
0c
05
06
fb
06
08
f8
e4
05
0e
0d
00
f2
0a
0a
06
0c
06
06
fe
06
01
08
02
f9
0a
fb
01
00
06
13
08
00
00
f7
0e
06
f9
00
f4
0c
02
fd
fe
f9
03
fb
fc
f2
f3
fe
f7
f2
eb
12
fc
e2
e9
ee
05
ee
da
e2
f3
02
f1
ed
f2
fc
fc
f1
f2
f3
03
04
ec
f5
f3
06
1a
10
1a
04
05
25
1d
20
f7
f9
0c
0a
0d
eb
fd
13
0e
11
f7
03
1a
12
16
f9
05
ff
ff
06
01
fa
00
03
09
0e
f3
00
09
05
14
f6
f9
05
09
0a
f8
f6
fc
01
fd
f2
eb
e1
f4
fa
f7
f8
e9
ed
fb
f7
fc
ed
f4
fa
f6
04
f6
fc
0d
e4
f3
f1
fd
00
0c
02
f4
04
fb
fb
f5
ec
f8
f8
00
ff
fe
fe
01
15
0b
06
06
13
1a
07
fc
ed
fc
02
fe
f7
fb
03
0b
01
fe
fc
02
0c
09
08
08
02
09
09
0e
03
fe
04
04
00
fe
f7
df
09
07
10
ef
e7
05
ff
0e
f1
eb
ff
f1
00
f4
f4
f7
f3
fe
f2
f4
04
fe
09
fb
fd
fc
f6
0f
29
f5
f0
e6
ff
13
f9
ef
ea
ff
13
00
fd
fd
08
11
01
fe
03
12
10
11
fb
f1
f0
fc
09
f8
ee
e8
fe
0a
f8
f8
f6
02
0f
ff
04
fe
0a
11
03
05
03
11
04
00
f5
01
00
02
fd
fa
f9
f5
0b
06
01
fd
f0
0b
04
0c
fd
f9
0b
09
11
05
ff
fe
11
09
0a
f3
f8
10
10
0f
fa
f6
10
16
11
f9
fa
07
fd
fb
ef
f6
17
1a
0e
ee
fe
f3
e4
f4
ff
01
fd
e7
f4
fb
0a
0b
f9
fc
fa
03
13
07
07
fa
00
03
ff
01
f3
07
0e
fb
02
f6
0b
0f
01
0d
08
f8
fb
e8
fa
ff
ff
0a
f9
0b
07
e7
f5
e4
ed
ef
00
ff
ec
fc
09
07
0c
fe
fe
07
15
11
03
09
10
13
12
0e
0d
17
ed
f2
f1
ff
0d
d9
0a
11
14
e2
ed
1c
1e
1d
eb
f0
1c
1c
22
ea
f2
24
23
22
e6
c9
fc
ff
f8
bc
01
15
0a
11
00
fa
04
01
09
fe
f7
05
fc
07
f6
07
0c
06
0c
02
f8
10
0c
13
05
f5
f5
e8
f6
05
fa
fc
ff
04
05
f0
fc
fd
07
06
00
01
0f
18
12
f8
ff
01
07
fe
09
fb
f0
ec
ee
04
f8
f9
f7
f3
01
f7
fb
f5
f3
09
04
01
01
fd
01
01
f9
f6
f2
f5
02
07
03
f4
fc
0b
10
11
03
ee
fa
fd
fb
f5
f6
05
04
0a
f7
f7
0c
12
12
01
f6
0d
0c
0c
01
f7
02
0e
08
fa
f8
01
0f
03
ff
06
04
09
08
fe
0c
0e
07
0b
f9
03
fc
f5
ff
14
f5
fa
fb
f6
f9
f0
fd
f4
f3
f9
f6
00
fa
fb
04
0a
03
ff
04
01
f2
fb
f3
ea
ee
f4
02
09
fa
f5
e9
f5
04
fe
ec
08
0f
0c
0a
02
05
03
f2
ea
e7
f9
06
03
00
fd
f6
ff
06
fe
fe
f5
ff
fd
f7
fb
f7
fa
f3
f6
00
e5
f0
f6
f3
f4
03
11
10
16
0d
fb
00
04
09
01
f3
f5
fc
02
fb
f0
ee
f2
f5
f5
02
00
05
ff
fe
03
fe
fa
02
fd
ff
f7
f5
fc
f9
07
09
02
04
08
08
00
fc
02
10
04
0f
0c
0f
18
f8
f1
ee
f1
fb
f7
ea
ee
f2
04
f0
e7
ed
f7
08
f3
ee
ee
f6
06
e9
de
e3
e6
f8
fd
eb
e9
fe
09
f4
f1
ef
f4
fe
f4
ef
f2
f9
00
fd
f7
f9
fd
06
ed
ed
f6
f2
ec
0e
0f
08
07
03
12
00
08
04
05
1a
09
0f
0f
13
17
10
1a
19
1a
07
fa
04
08
fe
1c
01
ee
e6
eb
09
f7
f2
ed
ed
06
f6
f0
ea
ee
0e
f7
f1
f1
f0
04
f3
fa
fb
f6
01
01
f7
fa
f5
f9
00
04
07
f8
02
0a
14
0f
01
0a
12
0b
15
06
fb
fd
fc
01
f7
fc
06
fc
f7
f4
f8
0c
02
f3
f3
e5
05
0c
fc
e5
03
03
05
09
08
03
04
f7
04
13
19
09
fc
fa
01
14
09
f3
f6
00
0f
02
f2
e8
fc
02
f6
ef
f2
f7
fc
f4
f2
f3
fb
07
0a
fb
03
fd
0b
06
03
05
fe
0d
0a
00
f8
f8
1b
0a
f0
f4
f4
10
10
00
fe
fc
f8
0b
04
f6
d6
f8
f9
ef
f0
e7
fd
f2
f3
f2
f5
05
fe
fc
fd
fc
fb
0b
05
0a
fa
10
0c
09
03
00
12
0c
0c
fb
f5
ff
f1
ff
f9
ff
fa
f2
fd
fe
0a
ff
fc
f9
f8
0e
fa
0f
0c
09
06
ee
05
12
08
08
e7
f2
fb
01
05
f1
f1
ee
fd
01
01
f8
f5
06
ff
10
0f
fc
08
0e
0e
0d
0a
06
06
07
ff
0b
02
fb
01
05
04
01
f6
e9
fa
f7
06
fa
f7
f1
f0
f7
fc
f7
f5
fd
02
02
fb
fe
03
0c
07
fa
01
03
0f
08
01
07
01
03
0a
e6
09
12
00
e3
f3
0b
20
11
00
fb
07
0b
05
02
06
09
06
0e
0e
08
05
fa
06
0b
07
fe
fa
fd
03
0a
05
fe
fb
f8
ff
04
07
fe
f8
00
06
0d
09
ff
f8
f8
06
0d
04
11
08
05
fe
06
ff
fd
00
f9
01
fe
fb
f9
f6
fe
07
03
01
00
0b
0c
02
fe
01
0e
fc
f8
07
17
11
00
0e
0a
04
03
f9
ff
fc
ee
fa
f7
f9
f9
f1
f0
fa
f6
ed
e6
e4
f3
18
18
16
f6
03
0d
14
0d
fd
05
04
07
04
0c
fe
04
03
ff
06
09
fc
f8
f7
05
13
11
04
0a
0c
11
0a
06
0c
0e
06
07
03
0e
08
05
03
05
0e
0b
03
09
00
08
01
01
ff
00
0c
f4
12
0f
09
0d
06
14
01
f4
f8
00
11
00
f9
ff
01
06
f9
ee
f6
f3
0b
05
f6
0a
19
10
09
06
0a
15
09
11
16
11
0c
f8
09
09
09
fb
fb
0b
09
14
ef
d7
e7
e8
e3
d6
e7
f0
f1
f1
e7
ed
fc
05
05
f2
f6
04
03
09
fc
f8
01
05
08
02
f4
f5
f4
f5
08
f9
05
00
fc
f8
01
14
0d
10
06
02
19
1b
17
08
08
11
14
08
ff
04
1b
0d
07
f5
0a
04
f7
ee
ea
04
ee
e9
ea
f1
fc
f2
ea
f3
06
ee
f4
ed
f2
08
f4
fe
0f
fa
e1
02
f6
ff
f4
ee
01
fc
fa
f9
fb
09
08
fc
fd
09
02
0c
fb
fb
03
f8
05
07
05
f6
f9
08
0e
10
00
f4
ff
01
01
f8
fd
02
04
fc
f5
00
f9
01
00
f9
07
0e
f9
0d
08
09
0e
0c
03
05
06
0c
15
0a
07
f8
0c
09
09
05
f0
08
fd
03
ff
ee
02
1a
12
e8
07
16
15
ff
e8
fe
fd
fd
ee
ec
02
00
01
f7
ff
03
fc
f7
f5
fc
05
f5
0a
04
f5
fa
f0
06
0d
f7
00
05
0c
14
07
03
00
fd
fe
0f
06
00
ff
fb
0b
ed
0b
17
f7
e6
f7
fc
01
f2
f1
f5
ed
ef
f0
00
ff
f5
f5
f8
0d
04
f6
f4
fc
10
f7
02
17
ff
fc
f5
fc
14
fa
fa
f9
fb
08
02
f3
f3
f8
fa
fe
ff
fc
fb
fb
f7
05
03
29
20
1a
04
f7
07
fd
f7
f1
ff
0c
00
02
09
f4
fb
f2
f1
03
fd
f4
f3
fb
05
f6
f6
0a
fe
f4
02
00
02
f7
fd
00
f9
f1
02
19
05
fa
e6
fe
22
0e
06
f9
0e
23
0a
18
1c
0e
f2
08
07
04
05
fc
f3
e1
e7
f2
fc
ed
e0
ec
01
07
f6
f3
f7
fe
ff
fc
fd
fc
ec
f1
fc
fc
04
f5
ee
fb
fa
06
ff
f7
01
00
fa
05
04
0e
fc
f7
02
0b
ef
ff
0c
03
02
f3
ef
f5
f7
ef
fe
f4
e9
ea
f1
06
00
e9
e7
ef
0d
04
f1
f0
fb
06
0a
14
0e
03
06
0a
0e
09
01
06
f9
ef
f9
0d
0e
fe
e9
f6
17
20
11
02
12
1b
f9
09
0c
04
08
ec
03
0e
ff
e7
e5
ee
f2
f7
e5
ef
f0
f3
f7
f8
ef
f1
ef
f2
f1
f5
f6
ee
f5
f7
06
01
fb
01
09
04
fc
fa
fc
0a
f7
f6
f9
f9
06
fd
fa
f9
fb
fc
f6
05
fe
fe
08
fd
09
0e
0f
0b
0d
09
0d
16
06
13
05
02
04
fd
1e
01
f8
01
02
ff
06
fe
05
fa
f7
fd
f8
05
fc
ef
f6
f4
f8
f7
f3
f3
f5
ff
fe
05
fe
f9
0d
0a
f3
f5
f0
f3
ee
05
08
00
00
f5
0b
09
03
07
fb
00
fe
f7
fc
f3
f5
f5
f7
f9
f3
f4
f3
f0
fa
ff
05
ff
ff
0b
0e
09
0a
05
0b
0c
0a
0b
04
07
0a
09
0d
00
04
fc
f5
ec
ee
ed
e7
05
f6
eb
f4
f7
0a
04
f7
fd
fb
11
00
02
08
fd
ff
fe
09
08
f4
fc
01
fe
04
00
f8
fa
fb
fe
fa
f9
fc
00
00
fd
f5
f3
fb
02
01
ee
f0
ef
f5
fe
05
12
0e
0c
05
08
0e
0d
0e
06
03
10
0a
09
07
07
1a
11
0b
08
f8
0e
08
01
ff
f6
fc
fe
08
f9
03
08
0d
0f
07
07
08
0b
11
05
03
05
05
0b
04
fe
f9
fd
0b
ff
ee
e4
e7
ec
e6
f9
f2
f9
f9
f9
fa
f3
fd
fa
fc
f7
f6
02
00
01
ff
02
07
07
03
ec
f3
f3
01
f9
01
fd
f3
01
f9
01
f9
f2
f8
f7
00
f8
f5
fd
fa
03
03
fe
fc
fb
07
15
11
0d
00
0a
0f
0c
07
00
02
10
06
0c
fc
08
0c
08
10
03
0e
0a
01
06
07
fa
03
05
01
fa
f5
fa
fd
fe
fb
f5
f5
f8
ff
fe
fb
f5
f4
fd
fd
fc
f5
f9
f9
fa
ff
05
02
00
ee
19
19
10
15
09
00
01
f4
02
fb
03
fc
f3
fe
f6
fe
f9
eb
f8
f2
ec
f5
f9
f7
02
f4
f1
f6
ff
ff
f1
eb
f1
fd
04
f4
f0
f1
fc
04
ef
f6
f8
f2
eb
ff
fe
f5
fb
01
ee
f3
ec
f7
f8
f3
f1
ef
fa
00
04
fb
f6
0a
14
03
f3
ed
00
12
f8
01
ff
fe
fb
f3
f5
f3
f8
f7
f5
f6
f2
f7
f4
f7
f5
f1
fc
f9
fc
f8
f2
fc
fe
f8
f0
ed
fd
f5
0a
f2
ed
fb
f7
0f
f8
f4
fa
f4
11
02
02
04
fb
06
06
0e
07
fb
0e
01
06
08
0c
0e
fa
fb
02
03
06
00
08
05
ff
f5
fe
02
01
f7
f0
fc
07
08
f9
fe
02
02
03
fd
fc
fd
f3
fc
f8
00
03
fd
02
f7
fa
fd
f9
fc
f1
fa
fa
f3
fd
f7
fb
02
fd
fe
08
ee
f1
ee
f7
f6
ef
f1
f5
f4
f2
f7
f9
fe
fd
fb
f3
ff
01
fb
fd
17
08
07
07
08
0a
02
03
03
ff
f8
fa
f5
f7
f2
f3
f7
f8
fa
f0
f0
f0
f9
f7
e8
06
0e
1a
0d
0c
06
0a
13
05
05
0d
0a
18
08
0b
ff
f7
05
ff
fe
01
fb
fe
f9
fa
f0
f7
f7
f4
f8
fd
06
05
00
01
fd
02
fe
fa
ff
04
02
ff
fd
05
07
fe
fa
04
0d
f4
f5
fd
f8
ee
f8
f9
04
ff
f2
f7
f9
02
fd
fa
fc
fe
00
00
01
fc
00
03
f9
fb
0c
15
0e
04
12
fc
0f
09
05
0c
f3
06
0e
0a
ff
fc
04
08
09
00
fb
fc
00
01
00
ff
02
fe
04
01
0a
13
0c
04
03
0a
12
0a
03
06
05
0c
09
06
06
fe
07
08
08
05
fe
f8
f7
00
f7
1d
12
0e
0d
11
13
12
0c
03
05
00
05
07
01
02
f1
00
03
ff
f6
09
08
02
05
0e
0c
06
fd
fe
13
08
0a
01
fc
0d
00
01
fd
fb
fd
fe
0e
0c
00
f2
fe
fe
f7
fc
07
ee
f9
f9
00
03
f2
ff
02
01
00
f3
f7
fc
ff
fd
f8
fd
00
04
00
fe
fe
f5
fe
fa
02
07
ff
06
05
fb
03
03
fe
00
f8
05
06
02
fb
01
08
05
07
01
ef
00
00
01
f4
e5
f7
f7
f9
e8
f1
00
f9
f6
ee
e3
f3
f2
f3
e8
01
02
fd
02
fe
f9
f8
fa
fb
fc
00
fe
fd
02
fd
fd
fd
fc
fd
f9
09
06
04
01
fe
ff
03
00
02
fd
00
04
ff
07
fb
02
05
fe
07
ff
0d
08
05
07
01
0f
01
fa
ff
04
0e
07
f7
fd
05
f5
fb
f1
f2
fc
fd
01
f4
e0
ec
0d
0f
17
ff
f6
08
f8
02
ed
fa
04
02
10
f0
f2
e1
ea
fd
02
f9
ea
f0
04
12
0a
02
10
0f
0c
0a
03
1f
18
05
02
0a
19
20
10
0e
15
fc
07
07
09
00
e7
fc
fe
07
ee
d9
08
1c
19
f8
e3
04
1a
16
08
f7
02
08
09
f5
e5
ef
fa
fc
09
f9
fa
fb
fd
1e
00
f9
f1
f5
19
00
ed
e1
f2
10
06
0a
f8
0b
00
06
fc
f0
f1
01
06
09
08
0b
fb
f1
f3
fa
0c
07
f8
f2
f5
04
13
09
07
0a
0a
17
fa
e5
f1
f4
0b
00
03
fe
f4
01
18
24
10
fd
f9
1b
25
1a
0d
0e
11
16
0b
10
f2
14
0f
fb
ee
f3
22
1e
05
e5
f5
12
1a
09
e8
f3
eb
ec
fc
ff
f9
ed
ed
f4
fd
ee
0d
18
06
f8
01
1e
21
1c
09
fb
01
06
02
04
06
f9
f2
ef
f7
fe
fc
f8
f2
f0
01
0b
0a
00
ee
fa
01
06
06
f5
09
09
fa
f5
00
22
10
f5
e9
fe
1e
13
01
01
05
eb
f8
02
03
fc
e1
0c
20
13
f6
e8
14
26
1b
de
ff
f8
0d
0e
fa
15
f8
f2
fc
0b
f6
ff
0b
ee
e2
f6
fe
07
f4
f0
03
00
11
02
02
05
f6
12
01
0a
00
f3
05
fa
01
d4
ef
1b
10
da
ee
0e
3f
30
ec
f6
08
2e
2c
f1
e7
e3
ff
f9
d7
f9
ff
0f
0c
ed
f9
0c
f8
f1
f0
f0
f6
e7
ea
f5
01
ef
e6
ef
13
14
fc
fc
05
12
18
11
13
02
19
0d
ff
fd
f7
fc
0a
fa
ff
fb
05
09
f7
00
f8
0b
17
fd
09
09
1c
1c
fb
fb
05
1f
11
ed
f2
f4
fa
05
ff
fd
01
04
f7
06
02
fb
ff
e3
f5
fd
f6
ed
f8
f3
01
fa
ff
f4
01
ff
03
11
fa
01
07
0d
12
1b
0a
fe
f7
f4
13
0d
11
f7
f1
08
03
0e
04
f9
12
09
05
f9
15
fc
fa
f6
e6
00
fb
03
f0
df
f6
eb
fb
f7
e5
f5
e4
f9
05
f1
ff
0a
ff
f8
02
f0
ed
f0
f9
00
df
ea
fc
08
13
f0
02
f7
f3
fe
f9
07
ff
01
07
fc
fc
e5
e3
ef
e8
04
e2
ec
ed
f4
1b
0b
06
fa
0a
08
15
1c
02
0e
03
07
07
03
09
f2
02
f6
f6
09
fd
0a
04
fd
08
e3
05
0f
00
f3
e3
f9
16
0f
f7
f8
ee
ff
05
01
ed
ff
fa
eb
f7
df
e2
e0
dd
ed
f2
0d
1c
05
e7
f2
07
0f
01
e4
fc
ee
f3
f2
f1
0c
16
12
19
10
01
10
0f
15
02
01
12
18
22
0e
e6
e5
e6
f0
eb
f6
e7
de
eb
f3
fe
09
18
0b
fe
fb
08
0f
06
fb
e8
ec
f3
f0
ef
f9
f9
00
f7
ef
05
0d
15
12
ff
fa
f0
ed
eb
f8
ff
01
02
f8
f7
06
10
18
14
02
00
0c
1e
09
fd
f0
ec
00
f8
f6
0f
10
14
06
12
0f
09
00
f6
10
1f
1c
04
e7
fa
0a
1c
17
ef
f1
fe
0e
0c
f3
ff
1a
08
0d
06
14
fd
fe
00
f9
01
06
0f
0c
ff
02
f4
f9
ff
ee
ef
f2
00
01
fb
f2
1a
0c
fa
09
22
13
fc
fa
02
15
12
05
fc
0c
1b
04
0b
09
08
11
dd
f4
00
f5
f9
08
fa
fe
f8
02
09
0e
07
10
15
e8
eb
f4
0b
14
ea
ef
02
1f
24
f4
00
0a
14
2a
01
0f
0d
17
0c
f7
08
0a
11
0c
f3
00
00
0c
0e
ec
df
e9
ea
f6
f8
ec
e2
e4
f2
f3
ef
fc
f0
ee
f6
08
1f
0a
f7
e1
26
4d
2f
fa
e1
fd
29
1b
00
00
ed
fd
04
04
f0
00
07
14
ff
f4
f4
f0
0b
03
fd
f8
f2
05
fa
0a
06
fe
11
0a
f4
f3
f4
0a
fc
0d
01
fb
ff
ec
0c
02
0b
0f
f6
0e
ec
fe
18
13
03
e9
f6
0d
16
08
f3
f1
06
0a
f7
f2
f6
e5
fd
09
ff
02
06
06
12
01
0a
0c
0d
05
f7
06
0f
21
16
ff
08
07
fa
01
0c
07
0a
18
07
0c
ff
06
15
05
09
02
08
16
f8
01
03
08
04
e0
ef
f0
f6
ea
16
05
12
19
20
fa
00
0d
0f
0c
e4
f3
f8
fe
01
e1
f5
f2
ff
fe
e1
ea
de
e5
f0
f9
06
05
e1
fa
f3
0f
13
fc
fc
f2
09
14
00
f9
13
1f
2b
14
f5
01
0d
21
08
ef
fd
fa
e9
ea
05
07
fd
ef
f0
08
10
fd
f1
f5
0f
11
02
ff
fd
0c
07
02
08
09
12
fe
07
07
02
ed
08
15
15
06
00
03
14
0f
02
01
04
09
f5
f5
06
15
0c
f8
f2
fd
ea
e4
ec
ea
f5
ee
f9
00
fd
f7
f0
01
09
00
f7
fc
07
16
0c
05
10
0f
1b
0d
10
02
02
f9
ee
f4
0e
0f
01
fc
02
0d
07
03
fb
05
0b
06
0d
0a
0e
03
0c
14
11
11
06
f8
f8
fc
f6
02
02
fd
f4
e8
03
fe
ff
fb
f4
01
06
fe
f6
f6
02
06
f7
ed
f7
09
fd
05
02
15
0d
ff
09
04
1c
0e
04
05
01
19
0a
ff
fa
04
0b
17
fb
f4
fb
09
fc
ee
ed
f8
f5
05
03
fe
0a
ff
09
0b
0b
12
06
f9
fa
ff
05
02
f6
f7
00
01
03
e6
03
ff
ea
c8
f2
10
15
f8
d1
fb
20
1d
06
de
04
26
2d
15
ea
03
16
22
0e
f0
e6
ff
fd
f6
dc
e3
02
16
04
e7
f9
13
28
10
00
18
2e
32
26
12
2e
2f
24
16
17
04
ff
ff
04
0e
09
0c
0c
10
0f
01
07
04
08
0c
fd
00
03
07
05
ea
f6
01
fa
fa
f9
f2
f9
f9
03
fe
f6
ff
fc
0c
07
03
ff
06
12
0d
11
06
19
23
02
04
07
1a
1f
00
06
10
16
1f
02
01
0d
0e
14
fe
03
16
03
02
f9
fd
fe
ed
ee
05
0b
19
fa
f3
13
fd
f3
00
16
00
ff
04
00
10
00
13
11
ff
07
f6
0e
0d
fd
04
f4
01
01
f0
05
0a
fb
ef
ee
f7
0c
fb
ed
e9
04
18
0e
ff
fc
10
06
0b
06
13
17
08
03
f5
fd
04
07
10
11
07
f9
0a
0f
0a
f7
ee
0c
14
18
04
05
0a
0f
0e
03
02
00
08
13
0c
f9
f7
e8
eb
f4
09
ef
e9
ec
ec
fc
ea
e0
ea
f4
ff
e8
da
e2
f9
02
09
f8
01
14
21
02
f6
f4
fc
0f
0b
f8
fb
02
18
0d
f6
f7
fa
06
06
0c
10
05
fc
08
f3
f7
f2
f8
0e
fa
f1
f2
06
f8
ec
f2
ed
fc
f9
ed
ef
f2
ff
0d
07
fc
05
10
03
f7
f8
f9
0d
07
fc
fe
f2
fd
f9
df
ec
ef
f6
e4
da
db
e3
e6
e1
d2
d2
db
df
01
fa
fd
f4
f0
f3
f8
f3
f3
ec
fe
04
f5
f7
fc
fc
02
fc
ef
f1
f7
0b
08
03
06
ef
00
0b
03
03
14
0e
0a
07
0a
00
04
02
fa
ee
fe
0d
00
f5
e8
f2
0b
f4
ee
e5
d6
f3
f0
df
d1
2c
19
11
24
30
fd
f6
00
03
05
f3
f6
fe
0a
02
f2
ee
fd
ff
fd
e3
c7
d1
d0
e3
02
e6
f6
f0
08
fa
f5
ff
01
07
f8
04
09
05
02
00
0e
0b
08
05
e2
e7
ed
ef
de
27
12
fb
0b
04
06
03
fe
07
fa
f7
02
0b
0c
01
ee
f8
f5
f0
e4
e7
ec
f5
e3
e9
0a
00
04
0e
17
12
05
08
17
16
14
02
0c
0f
12
06
06
03
0e
11
f4
fa
fb
0a
08
f4
f9
00
ec
f2
fc
09
0b
f2
08
fa
fd
ef
f2
18
f6
fe
ed
fa
04
0e
05
fc
0e
0a
04
0f
05
03
16
f8
02
f7
fb
0d
ed
f9
ee
ef
03
f4
f4
e6
f0
fa
f0
fe
f0
f1
eb
12
ff
13
0b
09
01
ff
0a
fe
fc
f5
03
09
fc
01
f2
01
fb
fb
f4
f1
00
00
ec
e6
f1
00
00
01
fc
21
20
1d
1c
1c
0e
0f
0a
0b
01
03
01
f4
f7
fc
01
fe
fb
00
03
f3
fa
f9
02
f8
f0
f4
f8
03
f3
fa
fb
fb
09
f5
ff
f7
f9
06
f3
07
fc
02
09
f8
03
0e
11
0e
07
ff
00
01
ff
fa
ec
eb
e9
f5
f2
02
08
04
08
06
17
1b
1c
19
16
f0
f8
f8
0f
fe
f3
03
fc
03
00
f2
e8
de
e3
e8
f5
ec
de
e7
e3
03
fd
fe
05
08
f2
ff
05
fe
f7
01
04
0a
ff
fd
06
03
09
03
00
0b
07
05
01
00
04
ff
fc
fd
fd
04
fc
f7
ff
04
00
fc
fa
ff
01
f4
f2
f2
f4
f8
f9
f8
f3
f8
fe
05
fe
fc
03
06
f1
03
fd
fd
f6
f5
fe
fd
fe
00
eb
fb
fc
fa
f9
f8
10
09
04
0b
f7
03
ff
f5
02
ef
01
03
00
f1
ff
05
06
0b
ff
ef
fc
f7
f9
f2
01
07
03
08
fd
fa
02
0c
0b
f9
ff
fe
f0
f1
f5
0c
10
0b
07
01
03
05
0b
07
09
f6
02
04
01
11
f9
fb
05
f6
07
08
fb
f5
f2
f7
02
f6
e6
eb
f1
fa
fc
f7
f5
f8
0b
09
04
04
0b
0a
fe
f1
f6
0b
01
06
06
fb
f8
fa
07
0a
00
fb
fa
fd
fc
f4
f2
04
00
00
fe
fa
f8
fc
fb
f8
f2
f1
e6
e2
e8
f7
0e
10
0e
0f
13
f9
ff
01
01
01
f0
f3
f5
fc
ff
ef
f3
fb
fd
ff
02
17
fb
06
fb
ef
f8
e8
f8
fc
d9
e3
d5
e4
f2
f1
ed
e7
e7
ef
07
02
f9
f1
f7
ff
f5
ed
f3
04
14
0c
07
0f
11
19
14
06
11
16
16
10
01
0a
0f
01
f4
ec
f1
ff
06
f6
0a
f4
03
fe
fa
fc
f9
02
f2
fb
00
ff
fa
fa
06
fe
08
fb
00
03
f6
03
f7
08
06
09
0b
fb
00
fa
0c
06
fa
f8
ed
fb
f6
f8
00
02
04
05
09
11
07
0d
0e
10
fb
03
0b
0e
00
ff
01
07
02
03
04
0a
08
05
04
fb
0d
0f
11
0b
ff
04
08
0b
03
01
fb
fb
fa
fd
fe
01
09
0b
04
f2
fb
08
06
04
fb
03
05
05
0a
02
00
f9
00
02
07
14
02
19
08
0a
07
04
01
fb
05
fa
fd
f7
fe
fb
fe
00
fb
08
02
f9
07
ff
0e
02
fe
06
0c
0a
00
ff
fd
00
f8
09
03
01
03
ff
18
14
0c
16
0b
14
ff
fe
08
07
00
00
05
f9
f4
fd
f3
f3
f1
f3
06
ec
f0
f5
f8
0b
fe
06
fa
01
f7
f7
01
f5
f6
ff
04
02
08
ff
08
0a
07
07
0f
f7
f4
f5
f7
fc
0a
0e
09
0d
09
12
1b
1a
21
16
fd
02
ff
02
fd
00
f9
fb
ff
06
f6
fc
f4
00
fb
02
06
fb
05
fe
ef
01
ed
05
ea
f4
fc
00
03
fd
04
11
13
0c
ff
fa
00
fc
f5
fb
03
fd
fc
ff
ff
f6
fa
fb
f8
f3
11
09
fb
03
02
08
01
fd
ff
06
fb
ee
e8
f3
f4
fb
04
fe
03
fa
03
10
0a
0c
04
14
22
25
1e
0f
f8
ff
fa
fc
f8
de
d1
d0
d6
e9
06
00
02
fe
fc
2f
3f
3c
33
1a
13
1b
19
0c
0d
07
02
09
fd
08
02
f5
f3
f3
fa
fd
fb
f6
01
f8
ff
0d
07
17
03
02
f7
f7
ff
f8
02
05
03
07
05
06
06
06
03
03
04
08
01
0a
07
f8
fc
f2
fc
05
0c
02
12
03
02
f6
ee
f3
ee
ef
ed
f3
ef
ef
eb
eb
07
ff
04
eb
00
05
01
09
f7
09
09
0b
00
f9
1f
14
0c
0a
0b
1d
0c
0e
0e
10
01
fe
fd
fb
04
03
09
07
09
0b
ff
0b
0a
03
f6
04
01
06
00
f2
fa
01
05
fd
f6
fa
fc
fe
00
fa
f9
00
00
fd
f9
01
f3
ea
f1
fc
f6
f8
f6
fb
06
f4
f8
fd
fb
fc
f6
fa
fc
fe
f7
f5
f9
f3
f2
fa
fd
1d
24
09
fc
ee
2d
39
0f
f8
07
12
1b
02
f6
02
04
0e
f5
f7
fa
0f
19
f9
fb
fb
10
07
f9
06
03
18
24
fc
fa
fa
15
22
14
05
f1
fd
09
fe
fa
dd
e6
fa
f1
f0
f4
e2
f6
fe
f1
fe
ec
f9
ff
ed
fc
ec
e6
ea
e4
10
0e
0b
02
05
0a
0e
11
04
00
08
0a
fe
11
12
0f
05
f4
fc
0f
04
e7
e2
e7
fe
14
f5
fd
ff
0a
08
eb
f2
ed
fd
e5
f2
f4
e7
e9
fc
0d
0e
02
fd
0a
0c
21
15
0c
01
f9
02
05
09
ea
e8
eb
ee
f3
ff
17
1f
09
fe
f4
06
0a
08
f9
f4
05
04
fb
ee
05
ff
f8
00
fd
f7
f4
f9
f6
f9
f3
03
f8
eb
f9
f0
f7
ef
e8
f6
f2
05
f5
f3
fa
0f
1e
18
09
00
1b
0f
04
03
09
0a
08
ff
06
0a
0f
17
0b
0d
18
0f
07
03
08
14
fd
eb
ea
ee
fa
fe
f7
f0
fb
05
10
00
fd
f0
07
13
0a
0b
fd
0a
15
0d
19
1e
1b
0d
04
06
0b
00
08
ff
f2
e8
f1
d8
f7
05
fa
e6
eb
29
41
2b
f5
f2
fd
0c
0a
ff
e4
f4
0c
fc
f9
f2
06
0f
0a
f2
fd
04
0e
07
fe
f3
f2
f9
f9
ed
00
f7
f2
f3
fb
f0
f4
f4
f7
f6
f2
fc
03
04
fd
f1
0c
16
07
eb
fc
0c
1a
04
f3
0e
13
19
00
fd
04
02
08
f3
f3
ed
f1
f5
e8
e4
1b
f5
e0
e9
06
15
ff
e0
e8
1a
0f
12
ff
02
1e
05
04
fc
fc
09
f9
ed
f0
fc
06
fa
03
03
04
f8
06
11
09
03
f6
08
13
0c
08
fb
07
17
19
0d
fc
f3
0f
0d
fd
f1
f6
f8
01
f3
ee
f2
fe
0c
fc
f4
f3
14
29
10
f5
f0
e8
f5
f3
ee
f9
00
03
fa
ff
e8
ed
ee
ef
06
fe
0a
fe
fc
0a
00
f7
ef
f1
13
02
f7
ec
fc
0a
fa
fd
f8
fa
02
0b
15
13
0e
0d
fd
08
00
f2
f4
fa
0d
14
0b
10
15
15
1b
13
22
09
fd
06
03
01
fb
07
17
12
fb
cd
e8
07
02
e4
ec
e6
f9
09
0e
00
ff
03
06
0b
f9
fe
08
04
fa
ef
db
ca
e0
f4
15
08
0a
19
21
16
0c
fb
04
07
06
f6
e6
ea
f9
11
f7
04
ff
10
f4
07
14
06
f7
09
1f
25
13
06
cf
fc
0f
fc
f2
fc
ff
fa
f2
05
f6
07
08
fe
03
ea
f9
06
f9
02
fb
18
27
09
07
01
08
0f
0e
10
f8
fd
f4
01
06
03
12
0e
07
05
04
21
1a
2b
f8
07
27
22
34
01
f2
fc
01
01
e7
ff
12
17
13
fa
ea
f4
ff
00
e6
f8
ff
f9
04
f9
e9
f6
fd
00
f1
f2
f2
f5
f9
fa
03
08
12
15
07
f8
07
10
0c
05
f2
f8
f6
e3
f0
f9
2b
2d
08
eb
10
26
32
1d
00
fa
f0
ef
f2
f4
00
03
0e
01
f9
fb
dc
cf
e0
fc
0e
05
08
fc
03
fe
ff
0e
01
05
01
f7
00
fd
08
18
07
10
06
09
05
16
19
0e
08
e5
d8
d4
d7
ef
dc
c6
bf
ce
f7
0c
12
16
18
13
00
05
04
fe
ff
18
1c
1a
27
1f
fc
df
d6
e8
f9
0c
f5
ef
f6
04
16
05
ff
05
0e
0c
f5
f8
fe
0f
07
f6
0e
06
0d
07
0d
20
15
16
02
fc
05
f1
f5
04
f1
f5
f4
fa
0d
f7
ff
fd
04
f0
ed
f3
f0
ee
fd
25
40
3c
1d
f1
0c
1d
14
fe
ee
0a
0b
0f
04
f9
06
10
0e
02
e1
ff
0e
f0
e5
e5
21
36
16
e5
fe
20
1f
fa
d1
f0
f5
f2
e2
da
ef
fd
09
f3
ea
fb
f7
f8
00
05
f7
db
d2
dd
ef
02
f4
ef
f8
02
fe
01
01
02
09
09
01
fe
06
09
fd
f0
db
dc
df
17
0e
16
0c
01
08
02
12
14
0d
00
f6
fb
f9
fd
fd
f6
f7
fe
fc
08
fb
07
0b
08
06
fa
f8
f8
fc
0c
05
03
00
01
1b
0d
0d
02
05
0e
fc
fc
04
04
fd
0b
08
ff
07
02
15
11
00
04
f6
06
10
0a
04
f7
ef
ff
0f
03
ff
f2
f2
fe
fe
fa
f3
fe
f3
e5
03
fc
07
f9
ec
07
fe
05
03
fd
01
f9
03
11
0e
06
00
09
09
0b
f5
ff
fa
fb
fa
01
02
01
fb
07
fe
ff
fc
04
fe
0f
07
02
05
f7
1e
1d
14
15
04
fb
00
fc
f9
fc
fe
08
05
fb
f6
f8
f4
fc
00
fb
f7
f1
f3
fc
00
fc
fd
01
08
0d
10
0a
0a
0f
11
09
fe
fa
fc
07
15
13
07
0d
13
09
02
f7
fb
05
fb
06
03
06
01
09
05
0d
02
06
06
08
0a
fb
fc
fa
07
0a
ff
f6
f4
f7
fd
00
ff
fe
f3
f9
f9
03
02
0c
07
01
f7
f3
05
05
f8
ea
f9
fe
00
00
f5
00
fb
f9
fe
07
03
00
fe
01
03
f4
f6
fb
f7
f9
07
fe
fb
f2
ff
fa
fe
fe
03
00
01
0b
0a
01
f9
f7
0a
03
01
fb
1a
06
00
03
0f
1a
16
0e
0f
12
03
0a
13
07
fa
03
02
09
11
0b
02
f4
f8
08
0e
f4
f7
f3
f1
f3
f2
fa
f9
f4
eb
fe
03
06
02
f5
f9
f2
f4
f2
ff
fd
e8
ef
f8
04
18
0f
07
05
06
10
fb
f4
fa
04
06
f5
e7
f1
fd
0c
f6
e5
f0
03
0a
04
ff
03
09
10
0e
07
06
0a
04
11
0d
03
f6
fb
05
fe
fe
f3
f8
04
02
0d
06
08
11
13
17
07
ff
ef
f4
06
16
08
f5
f8
07
13
0c
06
fc
00
04
17
15
11
06
fe
19
1a
18
14
09
00
f9
fb
03
04
05
fe
06
09
06
01
04
0f
0c
01
f7
f2
06
f8
f9
00
f7
f5
ee
fa
eb
f7
00
07
13
f3
00
08
07
0c
03
0d
07
00
01
0f
0f
f9
f0
f1
16
16
0a
fa
ed
e9
f1
f6
f0
f4
f6
fc
fc
f9
fe
f7
ff
fb
f2
f4
fe
03
fa
f5
f6
f9
fe
fb
f9
f7
e5
e5
e6
e6
ec
fd
fc
01
fd
06
f5
fd
00
0a
0b
f1
fc
05
04
06
f7
fa
ff
03
0b
f8
07
02
fa
fc
f7
fc
fa
f2
f9
eb
f1
ee
f7
fe
f4
f7
02
07
08
e7
fa
0d
06
08
01
fe
fe
02
03
0b
02
fe
02
01
0c
03
ff
f9
f6
05
06
fd
f4
e7
03
02
05
fe
ee
02
f9
f9
fc
02
0c
04
fa
02
03
ef
fb
f2
eb
e7
e9
f1
f9
ee
e1
e2
e8
f0
f0
e2
f5
fd
fe
fb
f9
fb
fb
f9
fa
02
05
fd
ff
01
02
00
04
02
fc
f7
fa
07
08
fb
ed
05
02
0d
07
09
00
f5
fe
f7
04
03
f8
fb
ff
05
fc
f4
fb
f9
fc
fe
05
01
00
fc
0f
06
02
05
04
ff
f7
f6
f6
f7
0b
07
06
00
ff
0a
fd
04
01
0d
f2
f5
00
02
f9
f1
f4
f1
f8
08
0a
09
04
07
05
12
15
0f
fc
f7
0d
09
0a
f9
f4
06
02
ff
fe
03
d7
d2
dd
e3
eb
f1
ea
f5
f7
00
fe
fc
00
01
04
fe
fe
ff
05
07
f7
ff
02
07
00
ef
f5
fa
f3
eb
f2
fb
0a
fb
f1
fa
03
ff
fc
f9
ff
fc
ef
fa
08
ff
00
fe
03
02
fb
06
08
ff
f5
01
0e
09
08
06
f3
00
fd
07
07
ec
f9
fc
04
0a
ee
00
fc
ff
10
f4
f7
05
f6
f3
03
f5
02
fc
fa
0a
f7
fc
04
0a
0d
fe
ff
07
0a
0d
06
05
03
08
16
0c
0f
0c
14
ff
f9
f9
fb
03
0c
00
04
0c
19
0a
fe
fa
00
0d
12
ff
02
0e
13
f5
ef
f6
f6
ee
fc
f3
f5
f2
f5
fc
fd
ff
00
fe
00
ff
ff
01
f9
f3
fa
fc
f0
ee
03
fc
00
05
fc
02
f6
07
17
0b
ff
fd
04
18
0c
ff
01
03
00
06
fb
fc
fa
e9
f7
0f
19
16
09
f1
11
14
0e
fc
f5
ff
04
f7
e9
f1
f3
fa
f4
ee
fa
f2
ff
04
ff
07
fd
0b
01
fc
ea
05
0a
05
f4
f2
05
05
01
f0
f4
06
03
fc
f1
00
0a
09
00
ff
ff
fb
ef
fb
18
19
f7
f0
04
28
1b
f6
f4
07
24
10
07
09
12
20
18
1e
1b
17
1c
0e
f6
03
f0
f2
f9
e8
ec
e9
f8
ff
e6
ec
f1
05
02
f0
fb
fc
0d
08
fb
00
fd
07
fc
00
03
05
fc
ea
ff
02
ff
f3
e6
f4
fb
f9
eb
e1
f5
ff
01
f7
ea
fd
05
05
01
f8
21
18
0d
0a
ed
1c
0d
03
01
eb
09
03
f6
f0
ec
02
ff
f7
ee
fa
05
fd
f8
f7
00
f4
fa
fe
fe
ff
f6
ff
0c
01
ee
04
0e
08
f7
e3
15
12
08
f4
e3
0e
02
ff
fa
ef
0b
08
01
fd
f4
08
0c
09
01
f0
03
0c
09
f9
e8
fc
0a
fd
f4
e9
ff
09
07
07
00
00
fd
00
09
02
01
ff
fe
00
fb
00
05
0b
04
f3
05
14
14
01
f6
00
09
08
05
03
0e
03
01
fc
f5
09
08
06
fb
fd
04
02
08
00
f9
09
07
08
05
08
11
0e
0f
12
15
ff
03
02
06
00
04
05
0a
06
fb
04
00
02
02
03
fd
fc
03
01
08
fa
01
08
0c
14
17
08
f0
f4
09
16
00
ee
fe
11
00
ef
de
eb
fd
18
10
fc
03
0d
1f
1b
04
02
08
05
06
ff
fd
fd
fc
02
fb
04
fb
f8
06
00
03
fb
00
0b
04
01
f2
13
10
07
01
f5
fb
ef
f3
12
29
fc
fb
fe
0e
17
01
f7
ee
f5
f3
0c
01
f9
fe
ef
04
f8
f4
fd
ee
f0
f7
fa
fb
f5
e8
eb
f9
f2
02
f6
f1
01
02
10
03
02
12
12
15
fe
01
12
0d
01
ee
f0
f9
f6
f1
ea
f2
ef
e6
e8
e8
ed
e3
d5
e0
ef
eb
e3
df
f1
d8
e0
df
e5
ef
f4
fa
f5
ef
eb
fc
ff
ef
ea
f9
fc
01
f4
f2
fc
fb
f7
f5
fb
11
03
04
fb
03
0d
fc
fe
fe
ef
f0
06
00
ff
fb
07
f8
fb
fd
03
10
f3
f3
f6
fc
12
f9
f4
f4
05
12
07
04
03
04
ff
01
03
0a
06
f9
03
07
10
05
f1
fc
03
02
fd
fb
f8
fe
f8
fd
ed
f6
fd
fc
f1
f3
02
06
0b
04
08
00
03
02
fc
fa
06
05
02
01
07
f6
f2
fb
0d
08
fd
fb
f9
f8
e7
f2
f8
f3
f3
ee
fc
fb
f4
f1
f0
fa
fa
f2
ef
f0
fa
f5
f5
f9
f8
f6
01
ff
08
0b
fe
07
05
08
04
f5
ff
fd
fa
ef
07
07
01
f8
f7
0e
0b
0e
07
01
fb
f5
00
03
08
fc
f5
01
fe
ff
00
fa
01
f6
fc
00
f8
fb
ef
f2
03
f5
f7
f1
f0
09
fc
01
0a
00
01
01
05
0e
0a
fb
02
07
0c
07
fe
02
05
11
12
03
03
08
13
12
f6
04
06
fe
03
f0
f6
f6
f5
00
e6
e6
e4
f5
fe
e0
df
df
f8
f6
e0
df
df
ef
e7
f5
05
0d
06
ff
ee
f8
fe
fb
f9
eb
ee
f3
f8
f7
f0
f0
f7
ff
01
fb
f5
fa
f1
f5
f7
06
07
0a
0a
05
0d
0b
0a
06
08
09
00
01
00
02
f4
f2
fe
02
00
ee
fc
04
02
15
15
15
0e
07
0d
1b
17
12
0b
18
25
23
1b
12
0f
18
1b
15
08
0c
10
11
05
0b
10
0a
05
02
09
fb
f2
f8
00
12
f3
f3
03
0b
1c
f5
06
0f
11
1d
0e
16
11
0b
13
0b
03
f6
09
18
0d
fd
f5
0d
29
08
fa
f9
0a
28
0e
09
04
0a
24
ff
ff
fb
08
26
ed
f4
f5
f3
fd
f1
f3
f9
fa
08
f3
f9
fd
fa
04
02
03
fa
f4
f2
04
fd
f6
f5
ed
1a
07
0b
14
15
0a
f9
01
0d
14
14
fd
ff
08
0b
19
03
0f
13
10
10
09
11
15
11
06
06
fe
0b
0f
09
06
fe
09
0c
0f
05
03
07
0d
12
0d
0c
11
15
00
04
fb
04
fe
f9
f7
fd
0b
03
ff
00
0a
0b
ff
06
04
06
ff
f4
0a
08
02
00
fb
fc
f8
f8
fe
00
24
21
fc
eb
f4
17
22
0e
f5
f4
0b
16
14
11
02
04
09
0f
13
0d
06
0c
06
06
03
0a
0a
11
18
1b
03
03
04
0d
12
04
02
03
01
0b
0f
0a
0a
0c
04
11
1b
13
15
02
ef
f1
fc
fb
f6
f3
f5
fe
f7
f3
f3
fb
f9
f7
f6
fc
fc
f4
fb
f5
f9
fe
fd
fe
07
fe
08
01
08
00
01
0b
fe
0c
01
fb
0a
06
06
ff
f7
06
05
04
fa
fa
05
ff
05
f6
05
fb
ed
f8
1b
0d
04
05
04
12
05
0a
0d
08
01
f8
ff
07
00
f5
f8
f4
fe
01
f6
fb
f2
ef
ef
f8
f9
f5
f8
f7
f9
00
fa
02
fd
fc
ff
f9
05
fb
fe
07
00
02
fb
fc
06
f1
e1
ed
ff
03
f6
f8
f6
06
f4
fb
f9
f5
ff
ed
fb
fe
fc
f7
e4
f5
01
04
f6
05
03
fc
01
0f
0c
01
fe
04
16
05
fe
f9
00
0a
05
04
02
07
0b
04
00
fd
05
0f
ed
eb
f6
fd
f9
fa
fa
01
09
03
fb
fc
03
07
03
fb
fb
01
00
ff
f9
f6
fb
f9
f4
05
f6
e4
e6
fe
07
f6
e3
f0
fa
f6
ee
dd
e8
ee
09
01
f8
03
03
0f
1b
0b
18
1a
1b
18
0d
0a
13
0a
1c
16
0e
0f
06
15
17
10
02
fe
05
10
0a
f7
f4
fc
09
0a
f1
10
0e
0b
18
25
09
0d
03
0f
17
f8
f8
ed
f6
0d
04
f9
e8
fc
0d
17
05
f9
0c
19
ff
fc
f2
fc
fe
f5
f7
f4
f4
f2
ef
f4
f5
f1
ec
ef
f4
ed
eb
f0
ed
f3
ea
e1
e7
0c
f6
00
22
26
0a
f4
fb
15
10
19
00
fb
01
03
21
0f
03
02
fe
13
07
04
04
02
ee
f7
f3
f7
f1
f5
f1
ea
f3
f6
00
f2
e9
e8
f1
ff
f9
ed
e6
e9
02
09
fe
f9
f5
06
03
f4
f5
f4
05
02
f5
f4
f5
fa
05
fd
fd
f6
f2
03
01
ff
ee
f8
09
01
ff
f0
05
05
08
03
f5
ff
00
06
02
f7
f5
fc
04
00
ff
f6
f6
fe
fe
02
eb
f3
f6
f9
fe
f2
f1
f1
02
08
ec
eb
e9
f7
04
f3
f4
f6
f7
f9
fa
fa
fc
06
05
fb
f7
f7
05
09
ee
f1
fc
05
fd
f3
f1
f6
00
ff
04
f6
f5
f8
ff
02
f5
f3
f4
f4
f5
ed
f9
f9
f1
e7
e7
e3
e3
e9
e1
d9
da
d8
de
ea
e2
e1
dc
ea
f7
f0
e9
ea
f7
0d
09
fb
fa
01
fb
00
0c
01
fb
fb
fd
0a
00
02
ff
f7
ff
f9
fd
00
f6
fc
f5
f9
02
fc
02
f8
fd
f5
fb
f5
f7
f3
f0
f5
f3
f2
f4
ed
f3
fd
00
f4
ec
f4
01
fe
f9
e6
f4
fc
f6
f2
fc
fd
04
1b
11
f7
f2
03
1d
08
fe
f1
ee
fd
fe
13
04
f7
fe
fe
06
05
01
08
05
f0
f4
03
0b
fb
f1
f0
02
0b
06
00
f5
fa
05
0a
01
f7
f7
fc
02
f6
ff
02
03
f9
f4
fd
00
f8
e7
fd
fd
fc
fc
f5
fd
00
ff
03
06
f5
fd
fc
fb
01
f6
04
07
ff
f4
04
16
0c
f7
e9
08
19
15
04
f3
01
13
14
12
0a
ee
02
09
0e
10
ee
f7
fa
fe
0a
01
fe
f2
e9
fb
f6
06
03
f6
f6
f4
05
0d
fd
f5
fd
02
09
07
04
05
ff
02
04
0a
0b
07
f9
02
f9
0b
fc
f6
fa
06
10
02
03
04
14
0a
07
09
08
11
0d
0d
07
0b
03
07
03
08
06
04
07
03
0e
0c
0b
01
05
0a
0d
0a
fd
00
08
06
01
f6
f9
fd
fd
f8
00
07
ff
ee
f0
f9
0c
0c
f2
e8
f5
0b
16
06
fc
ef
f8
02
03
fc
f5
fd
fb
f6
f4
f8
f4
f7
fe
f7
f5
f8
fb
fe
f2
fa
fa
fb
fe
f7
f6
f4
f6
fa
e9
08
07
fb
fd
f5
02
fe
f4
00
02
fc
fc
f5
ff
fd
fd
fe
00
ff
02
f9
f7
f4
f5
f4
0d
04
ff
04
03
01
02
ff
01
07
0a
11
05
09
10
01
09
fe
01
02
01
06
04
09
fd
fe
fd
03
02
f5
01
01
f6
06
ee
fa
f9
f4
ff
f6
f5
ff
f7
fd
f9
ff
fc
03
0b
f8
11
f9
02
09
fe
fa
0a
0b
01
fc
f8
fe
09
09
00
f8
f8
04
05
09
fe
fb
fc
01
03
fb
fe
01
f7
f6
ec
f9
f7
f7
ef
f6
01
fb
fd
ec
f9
04
fd
03
f5
ee
f5
f4
fa
f9
01
fd
fa
02
02
08
08
fb
09
16
09
06
04
0d
0d
09
08
06
0b
01
0e
12
0c
10
07
0a
0d
05
03
00
f8
f0
f0
e8
ef
ff
fb
ff
f6
f5
02
02
fe
00
fc
0a
07
06
03
03
10
0e
0d
07
09
f5
f2
eb
f4
f8
fd
f9
f1
f6
e8
05
ff
ff
fb
ee
07
fd
04
fd
f9
0f
03
06
01
08
f7
f8
f4
02
09
f9
ff
f1
fc
00
fa
04
fe
f9
f5
fc
05
05
00
f0
f8
f5
f2
fa
f8
f5
f4
fb
fc
fc
fc
00
04
07
01
fb
03
02
03
00
00
fe
03
ff
fe
ff
01
fe
ff
f8
ff
f4
ef
f9
00
0c
00
fe
07
0b
0d
06
05
0c
0a
02
f8
f5
03
04
0e
fc
f8
03
0b
f5
f8
ed
0c
fd
fb
ff
f5
04
f8
fb
00
fa
03
f9
f9
00
fd
05
fd
f2
fe
f4
02
ff
fe
fb
fe
00
00
06
04
03
05
06
0a
06
07
08
04
fe
fa
00
02
02
fa
f8
f9
ff
fe
ff
03
03
06
fd
0b
08
09
0a
08
f9
fa
fc
fa
f9
00
01
04
06
04
fc
02
05
0d
02
03
07
fe
0c
05
f8
f9
f8
05
fe
ff
fb
00
0f
08
fd
f1
fa
00
fd
19
03
fd
05
03
fc
01
fd
03
02
fb
fd
f9
ff
03
f7
fd
fb
fc
fb
fe
05
01
fe
f8
ff
fa
fc
fa
ef
fa
00
fa
f6
f6
fd
ff
fa
f8
f6
fc
04
01
01
fc
fb
03
03
04
fe
05
08
09
0c
07
fb
00
01
04
fd
f9
fd
f9
f9
f5
f9
fc
f5
f9
ee
fe
fb
fd
fd
f2
03
ff
fa
fc
fc
19
0c
01
0e
14
02
05
fe
ff
06
f0
fc
fc
fa
f7
f6
fb
fd
ff
f6
ee
eb
ed
f6
ec
fe
fd
ff
0b
12
00
fe
f9
03
14
1a
0a
05
04
19
12
0d
03
fb
05
09
13
04
f9
ff
04
0a
03
07
00
13
08
0d
0f
0c
fd
f6
f5
f9
f5
00
f6
fc
00
f8
f4
e8
f7
f5
f4
02
08
06
05
ff
fd
0d
03
06
fa
04
0d
01
01
01
06
12
0a
03
02
f9
01
fe
fb
fc
09
09
0d
03
f6
08
fd
fd
ff
f3
13
11
0f
0f
10
ff
01
ff
0a
13
0a
03
02
12
19
04
fe
f9
f9
06
13
10
09
03
1d
12
0a
00
f9
18
0d
07
fb
f5
01
fb
02
f6
ed
f4
06
07
02
04
00
0a
09
09
0b
12
fd
fd
fd
02
01
fc
f5
fd
fb
f4
03
f4
f9
f0
ec
fe
00
f9
fa
02
01
03
00
fc
0a
0f
10
0a
09
16
0f
14
0d
09
0b
0a
10
09
06
05
0b
0d
fc
04
fd
f7
04
00
01
fb
fa
01
fe
03
03
f2
fd
fe
02
04
f9
00
00
07
09
f7
04
00
f9
02
ec
f3
f9
f1
03
ed
ed
f2
f0
fd
f3
f5
f9
f8
f0
fc
05
00
00
f7
f8
f6
f9
03
01
f3
eb
ea
f7
f5
0a
00
f8
08
12
f2
f4
ee
f5
f9
10
08
ff
07
0c
08
03
ff
05
0a
09
08
05
0c
08
01
00
fc
07
00
10
05
07
0b
02
10
04
09
0b
03
03
ff
f5
00
04
02
09
fe
05
0d
fd
00
fb
08
0b
06
02
ff
0b
12
07
02
fa
09
0f
0d
12
19
0c
09
18
0d
0d
f8
fb
fc
f2
fa
08
20
26
0f
f8
fc
03
e7
e7
ed
08
27
10
14
10
13
16
04
0b
08
0b
0c
fa
f3
f2
f7
f6
f8
f4
ed
f9
ef
e6
f0
ec
ec
e6
fd
f8
fe
12
1c
fd
ff
02
07
0d
f9
fc
fc
fd
02
05
16
05
fc
f7
ff
05
0a
fc
ef
08
03
f0
f9
ed
02
f7
e5
f4
f3
08
fc
03
00
fb
04
ff
14
15
0c
02
0b
1b
16
04
13
0d
04
0f
12
0d
00
fa
03
04
fb
ee
e7
f2
f6
04
fb
f7
00
08
0a
09
08
05
0a
ef
0d
1a
16
fc
fd
12
12
09
f8
f8
00
03
f6
ee
e3
df
ea
ed
f6
0c
0a
05
07
fe
ec
03
06
f4
f3
fc
fe
02
fc
04
0e
04
01
04
16
06
fa
f7
06
0f
06
fc
f4
fc
00
fe
09
18
10
07
09
10
12
05
03
f9
f0
f5
f5
01
f8
f1
ed
ed
f9
fe
fa
f8
f6
f8
0d
00
04
13
0c
0e
ff
fc
08
0e
10
04
f4
fd
0a
04
09
01
f8
05
f4
12
1a
03
f6
11
17
2b
22
0b
09
fc
00
f6
f7
f3
e0
e3
e8
07
0a
0d
fd
fc
fa
fb
f1
f3
0c
16
02
04
f6
04
f3
08
fe
f2
07
fb
05
05
fc
02
01
f9
f7
02
08
05
f5
00
0b
04
fa
02
19
23
1b
0d
f5
04
07
05
06
eb
fb
f6
f5
ec
e5
f7
ee
f2
f4
02
08
04
03
01
f8
ff
f4
f2
f8
08
00
f0
fd
07
09
04
f9
0a
0c
fa
f1
f6
f9
00
1c
27
39
29
16
20
29
24
1d
09
0d
0f
08
06
fb
f0
e9
e5
ec
ea
fc
fb
f7
06
03
e4
f3
ee
f9
f6
f3
ff
07
fc
f8
f9
0c
18
0b
09
14
11
1e
07
03
06
00
06
0a
23
15
12
01
fc
f9
fb
fb
f4
fd
00
12
fd
01
fc
f2
07
ff
01
fe
ef
02
fa
fe
03
f2
0d
fa
fe
fb
e8
00
ff
ed
f3
f7
02
f7
f5
fc
0c
08
02
01
ff
08
08
f7
03
08
1e
f6
f7
04
0a
0a
ff
f0
f1
f2
ff
0b
02
f4
f6
0f
0b
f7
ec
fa
26
16
07
f5
f2
0a
13
04
f6
03
0f
fa
fc
f9
02
05
04
03
02
0b
11
09
08
05
fc
f3
fa
08
0c
13
0c
22
40
35
2c
0f
e8
ea
f1
ea
e8
f4
f1
fc
f3
e4
01
f8
00
f1
ea
00
fb
06
07
0e
11
06
fb
f3
ee
03
01
02
04
e7
05
fd
fd
08
f6
06
ee
ee
ff
fb
01
ec
e9
f6
fd
0c
fd
ff
07
08
ed
0c
19
04
ef
ee
ff
fe
fc
e8
0a
0c
08
02
fd
16
18
0b
17
16
f2
f0
da
e1
fd
fe
0e
0f
07
f8
fc
ff
fd
ed
e6
fe
e9
ee
e8
f4
f3
eb
f0
e7
ec
fa
ee
e9
e7
e7
fb
03
fc
ee
ef
fa
ff
fb
fb
fa
06
f7
f3
00
06
11
09
fe
08
05
10
05
01
18
13
04
fa
f0
ef
eb
ff
03
fe
fa
ec
02
03
fa
f6
e5
f8
ff
fa
01
e9
04
13
05
fd
ed
0a
0f
07
08
fb
f7
f5
f9
fc
f3
ff
02
04
ff
fe
07
0d
09
09
04
08
f5
fc
f5
04
eb
f1
e0
f0
fd
f5
f3
e6
03
0f
06
01
fa
04
0a
ff
00
f4
fa
06
fb
0f
08
10
0a
03
09
f3
f6
05
fa
00
f5
f8
05
f6
f2
f4
02
09
ec
f6
05
10
13
05
05
09
0e
05
1a
13
18
11
1e
13
0e
18
11
14
f4
f0
01
05
0c
f0
f9
02
fb
f2
de
eb
01
f6
f8
ee
0b
14
05
ec
f0
ff
05
ee
ea
f5
0a
08
f4
0a
09
1c
12
10
0d
29
19
04
16
1f
e5
e6
e6
e5
ed
08
04
fe
f4
04
08
02
f5
f2
05
f5
ef
ec
f5
06
f7
ee
f1
f4
00
fd
f9
0e
0b
05
fe
03
0c
0b
fd
fb
05
08
10
0f
f2
04
fb
07
09
f7
fb
ea
f4
fc
09
08
08
10
14
f3
09
02
fc
01
e7
f0
f7
ff
00
f1
e4
df
f2
0b
fb
ff
fa
f6
08
f1
03
07
02
05
f8
02
f5
0b
17
f4
0d
0b
f7
17
f7
dc
06
07
01
f6
da
e8
12
fd
0e
07
f1
d4
e9
17
11
f3
e5
dc
28
01
f0
ec
d5
29
0f
fa
f2
d4
1d
14
04
ee
cb
0d
13
0a
18
3a
f3
08
04
f7
10
ec
f2
01
f9
f3
fc
f4
05
07
00
0b
0f
06
09
04
02
13
09
f9
f8
fd
10
07
e5
e2
04
06
0e
f6
ee
00
00
05
01
01
f9
ed
f7
02
11
25
fe
0e
12
0c
23
ee
07
1a
08
1e
fa
ff
1e
0d
23
04
06
1b
1e
17
04
08
0a
1a
f9
f1
f2
eb
fc
f1
f5
ef
ec
09
f8
f3
f3
f7
09
02
f6
eb
f7
10
0c
f7
f5
f1
27
e8
02
fc
fc
09
ed
f4
fa
f0
fb
fd
07
01
05
0a
01
03
f7
09
11
0d
01
f8
0c
2a
10
00
07
00
01
e3
e0
fd
f8
fb
f0
e8
03
f9
08
00
e6
f8
fe
0c
17
00
ec
04
13
34
10
0c
22
1b
13
00
eb
09
08
04
08
f0
05
08
f4
02
fc
fe
ff
f6
0c
08
fb
fd
0d
39
1f
fa
f9
f8
17
16
f6
ec
ff
05
0f
f5
f2
06
01
07
f6
fe
09
fc
02
ff
0e
0c
f3
f8
13
30
10
ee
f8
0e
1e
0a
f0
f8
08
0f
15
03
f9
05
15
09
f9
f2
e5
f6
17
fb
f8
f5
11
09
f4
f9
f8
00
06
e6
ef
0f
0b
04
f0
e5
03
0f
f8
fb
fd
0a
08
f9
e1
e5
f1
fb
01
f0
ee
05
0b
fc
dd
d9
06
10
08
f6
e2
08
1f
1c
1e
05
11
18
ee
de
fd
03
e9
06
da
e3
fe
e8
ef
04
e1
f0
fd
e9
fe
fa
e2
fa
f3
0d
05
f2
f4
fc
11
00
14
22
e0
29
1c
f8
fd
cb
00
38
25
f6
d9
f5
26
33
10
c5
f5
17
26
06
e3
fa
f7
f8
ef
ec
07
17
01
fc
ee
ff
13
00
ed
e3
fe
09
15
ef
f0
f5
fe
22
00
fe
e6
f8
0a
f4
0c
f6
f9
0b
04
13
fe
01
08
0a
05
06
01
05
0d
fc
06
00
fb
fb
12
06
06
14
22
0f
f0
fd
02
0f
04
e8
f3
0b
fa
05
ea
de
0c
f8
f1
e7
e4
f7
f1
f5
f4
0c
11
f9
08
e8
d7
f9
09
12
14
fa
ff
19
02
13
01
01
1a
0e
1a
06
01
12
ed
fe
02
0c
11
dd
fc
02
02
08
d7
e9
09
07
0d
e2
ec
fb
10
0a
f4
e5
fc
11
08
d9
be
c5
e6
eb
07
fa
f7
11
0e
10
fb
f8
11
11
06
f7
e6
f8
02
10
17
f9
f7
06
f7
ec
fb
fc
07
ed
e0
f5
f4
f8
ec
f6
ef
f4
f9
e0
f3
f3
ec
01
ee
fb
f8
ed
0c
01
f3
fe
f9
00
07
f6
f6
fc
ec
14
1a
fa
e2
e9
12
28
04
e4
ed
11
33
18
e6
de
fb
11
fb
08
18
e7
1b
09
0e
1c
ec
28
26
13
05
f2
1c
2f
18
eb
06
19
30
31
da
eb
ed
e4
e6
e8
fd
13
0a
fe
01
fb
14
0c
00
fd
fd
0f
08
f9
f2
ff
17
19
12
fc
07
ee
fb
04
eb
05
eb
f0
03
f8
fa
fd
ef
03
04
07
0f
06
fe
fb
1b
38
2c
14
e1
18
fe
10
00
dc
fb
f9
0a
fd
e9
f9
10
07
f9
f4
f5
0d
f5
e8
f6
f4
14
f4
dd
eb
08
0d
0a
f7
05
17
3d
20
f3
f2
09
27
23
f5
dd
00
13
1f
00
e8
e6
f6
11
07
e0
1b
01
f7
00
fd
08
2d
16
f1
dd
ff
2e
1a
e6
d0
fa
2c
22
ea
d5
ed
fe
13
f1
dc
f5
f4
f4
ef
ec
03
03
ff
01
ff
0b
03
fd
04
00
06
05
01
fc
f2
fd
fc
0b
f7
e9
27
fc
0b
0a
e5
19
e6
ff
10
ea
1a
ff
ec
fc
fa
11
0b
ef
f0
00
ff
1b
06
fd
fa
05
fb
f4
f3
0b
05
03
fd
02
12
fe
fe
fb
fb
01
04
ff
04
fc
01
f7
01
0c
02
f6
fd
fe
04
03
08
fa
ff
f9
01
0b
f8
f5
f7
fb
01
fd
f4
f1
f9
fe
17
16
06
18
14
07
0b
19
ff
ee
00
03
0d
f9
ec
fa
0b
0d
01
fb
fc
12
08
0b
09
fd
0e
ff
0e
03
eb
05
11
f5
f6
f1
04
07
f8
04
f7
04
02
fc
07
0b
ff
fc
01
07
06
ef
ed
f6
03
02
06
00
ff
fe
00
06
03
fc
03
f7
00
fd
f6
fd
fb
fa
f9
f6
f8
03
04
fd
fd
05
07
07
f8
00
07
0a
0d
f4
0a
04
08
fa
d8
f8
fc
03
f8
db
f7
f8
f4
f5
ed
fc
f5
fd
f6
fe
ff
ff
f9
fa
05
fb
02
f3
02
fe
fa
02
ef
05
03
fb
04
ee
fd
ff
ef
01
12
0c
fa
04
09
07
06
f5
02
02
00
fc
fb
02
ff
f9
f9
fc
fe
00
f4
f5
ef
f8
f5
ef
fa
fc
0c
fd
ff
00
fd
01
05
07
08
f9
00
06
0a
0b
fc
01
ff
0d
fa
fc
fb
f4
fa
f9
f6
f3
f3
0a
15
06
ff
03
04
10
03
fe
ff
f9
06
05
fb
01
01
09
09
02
02
07
14
0b
ff
0c
01
0e
0a
ff
01
fe
0b
ff
f9
fc
00
03
fa
fd
ff
f1
f1
ee
ed
f1
f1
eb
e4
ee
fc
0f
0b
0b
19
1c
02
03
02
10
0b
00
fd
fd
0f
08
f8
f7
05
05
ff
03
f8
07
0e
ff
fa
f6
f6
fb
f5
f8
04
fe
f5
fe
03
03
fa
f1
04
fc
ea
e6
d4
e8
0b
f7
eb
ef
05
18
02
f9
fe
0c
11
03
ed
fd
08
14
0b
02
0a
0d
07
01
fa
fe
ff
f5
f8
ec
ef
f4
f1
fc
e5
f8
ee
02
04
f2
04
fd
06
fe
00
07
fd
03
fe
14
fe
01
f1
fa
fd
fb
05
f0
01
0f
07
17
ea
06
0a
fc
0e
f9
0d
0d
ff
ff
0b
01
00
fb
ef
05
0f
ff
08
15
09
0a
09
10
0c
09
07
0a
0f
11
03
09
05
0e
12
f5
01
ff
0c
09
ff
02
fe
f6
f5
fd
04
ff
f3
f2
03
00
fb
fd
fc
fa
fd
fc
00
05
f3
f5
f8
fd
fc
f0
f9
fe
f0
f0
ef
f0
fb
e8
ec
fd
f5
07
f1
f3
ff
f4
03
fb
00
f4
e0
ed
f4
01
1b
0f
f9
ff
12
0b
12
00
04
0c
02
0b
f7
fb
03
fd
00
ea
f7
f9
06
04
03
f7
01
f9
01
f4
ff
04
f9
08
fc
01
12
eb
fa
ed
f3
01
ff
04
f1
fa
08
0c
08
fd
05
0c
ff
f8
e3
eb
fc
03
fd
ed
f9
03
0f
03
01
05
0d
0a
07
08
04
0f
fc
08
10
05
07
ff
fd
fc
fd
f6
03
fc
f9
07
fe
0c
01
fd
0c
06
18
10
10
14
19
0d
04
10
03
0a
f9
fa
f9
f8
fc
01
fb
fe
fe
f5
02
f7
02
ff
f3
07
fc
05
00
f5
04
09
10
00
f8
f8
0c
10
13
fa
f7
02
08
06
f6
fe
05
07
fb
ff
05
0d
1e
0a
fb
03
04
1b
05
ff
07
0c
0a
07
f7
16
20
1e
15
0c
0d
1b
16
0e
0e
07
0f
07
06
05
f5
f9
f5
ec
f2
01
0a
05
0a
fc
08
00
01
0c
fd
09
07
00
0b
01
ff
08
f6
04
08
e3
e7
dc
e6
ee
fc
07
ff
0c
13
02
05
f1
10
08
0c
fe
ed
0d
03
13
f7
f4
14
08
0a
f8
09
16
14
e3
e2
ef
eb
e4
e9
e5
fc
f8
ea
06
fa
16
10
ff
00
00
14
15
03
fa
01
08
0f
08
ff
fd
f6
fa
f8
02
03
01
05
fe
09
05
fd
07
ff
0b
04
00
ff
01
fd
fb
f4
f9
fb
04
0d
05
0a
0c
f3
fa
f7
ff
fe
f4
fd
f1
ff
f4
f9
fb
f4
fd
f8
03
0a
07
10
0b
fd
0b
fe
0b
00
00
05
f9
09
fb
fd
f6
f9
0d
fa
04
f5
fa
0f
f7
00
f2
00
01
fb
e9
00
0e
19
0c
e8
fa
06
0c
02
ee
fa
0d
06
0a
fc
f2
13
12
09
02
03
15
0d
02
03
fb
09
03
fc
07
0a
0a
07
04
f0
02
fc
06
0e
f3
03
f0
08
04
f1
00
da
fb
fd
0c
17
07
fb
ff
ff
09
f7
ed
ea
06
05
df
e1
ea
23
17
f2
ff
07
24
07
e4
fc
06
06
08
0b
10
05
09
06
fe
fc
f1
04
00
fa
f5
fd
19
fd
0b
0b
10
14
f6
f9
fd
f6
fd
04
01
fd
e3
f9
ff
fc
f5
ec
08
09
04
0b
fd
09
fe
f5
fe
f4
ed
ef
ee
ef
f1
00
fe
e5
f5
fd
fd
f3
ea
fb
f1
0f
fc
04
16
10
17
09
10
1e
1e
f3
f0
0b
0b
01
f8
fa
dd
e7
f2
08
0b
f0
f7
0c
1a
16
f7
0f
1a
1d
12
ea
03
11
00
f5
ca
eb
08
fd
fd
ed
fb
0e
00
eb
f3
fb
02
01
e6
f6
fd
03
06
e9
f6
f7
0d
07
ef
02
05
13
fc
f4
f8
ff
f7
01
f8
04
0d
05
f3
f2
00
05
fc
ec
ee
03
00
09
d5
e1
03
ff
03
12
0a
1e
36
1d
f0
e7
fd
0b
02
ea
e0
fb
00
f7
f7
ed
04
02
f4
fd
f3
15
25
0b
02
0a
02
fd
01
fe
09
f9
f4
f9
fe
08
ed
e5
ee
0c
0e
f5
ec
fd
1b
14
03
00
1b
07
05
0c
2a
2d
f4
ec
f4
0d
12
f3
e8
eb
fd
02
f5
eb
f2
04
00
e6
df
f0
fb
f9
05
0d
0f
fc
fa
12
04
07
f4
f9
0f
fe
0c
f8
0c
03
e6
04
06
09
ec
d9
e4
fa
0d
db
e7
05
11
ff
d8
e9
06
0d
ff
e8
f9
23
20
0c
d8
e6
11
09
ef
f9
fb
22
17
fa
00
f6
05
f9
fd
14
ea
01
01
fe
0c
e3
08
fb
fc
f7
dc
19
f1
e8
e5
f0
12
fb
ea
06
1a
11
01
f3
08
0d
fd
ef
ed
00
f6
f0
ef
e9
0d
fc
ff
03
f2
29
04
03
07
0b
f6
f9
06
09
f4
f7
02
12
15
f7
fd
05
08
07
eb
fb
f7
07
fd
ed
11
05
0e
03
fc
db
e6
ea
0c
13
ec
f4
ff
08
0f
04
fa
05
0f
05
f8
f3
0d
18
06
e7
f2
10
15
fd
0f
17
0e
1d
14
f0
fb
f9
02
0d
e1
f7
ee
f7
ff
fd
11
08
fd
01
fa
15
03
f6
ff
f2
ff
00
fd
01
06
e9
ed
fa
fc
17
f8
f9
06
18
23
fe
14
23
17
12
ed
07
18
0b
0b
fc
fe
05
0f
05
ef
f3
fe
f8
f3
f7
fa
16
fe
f2
ff
ff
1f
07
e4
f7
f3
0d
00
ed
ef
06
18
15
02
f6
fc
0b
0a
00
f9
fb
0d
07
f4
f6
fa
fb
f3
09
06
02
ff
fa
fe
ee
0e
fe
04
fd
ee
05
01
08
f2
e8
f5
f7
fc
ee
f0
f2
f7
01
f0
fd
f7
05
05
05
fd
04
05
1b
08
f8
08
01
06
f6
f8
0c
f5
f7
e3
f7
03
f8
07
e5
04
f2
f2
fc
11
0c
fd
f7
f5
2d
17
0f
04
00
19
07
05
f9
f3
1a
0f
06
f4
f3
1f
0c
f3
e5
e3
f5
fa
07
01
f3
fe
fa
f3
eb
ea
fe
04
fa
ed
f9
1a
1e
0e
07
07
34
25
03
0d
15
11
ff
03
04
fd
f7
f8
e1
0b
02
f4
05
ec
17
07
f3
0e
01
1d
04
05
26
19
2a
22
03
ee
f8
fe
ed
fd
f5
00
0e
f4
06
02
0f
0f
f0
f9
f7
03
ef
e1
dd
e6
f5
df
d8
0b
25
26
22
20
f9
13
01
f8
f5
ea
fd
e7
d5
d3
fb
14
f8
d3
d9
fd
0a
eb
d0
db
24
02
07
19
31
25
05
12
14
15
0a
fb
0f
03
fa
f9
f6
fe
ee
e8
0c
0c
0a
f9
fb
f3
ec
e3
e2
e2
05
00
f6
fe
06
10
02
04
04
03
03
f5
02
fe
fa
ff
f1
f7
f5
f6
00
f6
f7
eb
f9
0a
f0
07
01
02
10
fc
14
fa
ff
0b
00
1d
04
08
07
03
24
1f
0c
02
0f
03
03
fd
19
14
08
09
ff
14
0b
20
1b
12
18
04
fe
f4
ef
13
0c
05
15
2b
0a
19
0d
09
09
04
10
07
05
11
0b
08
10
f8
0e
01
ec
f1
eb
03
ef
ea
dd
d8
f9
f4
fc
07
0b
ea
f4
03
fe
0a
f2
f8
03
01
f2
f4
0b
0b
13
09
fb
17
15
29
33
2f
ec
1a
11
0d
10
f3
08
08
11
0e
fc
f4
fe
fd
02
04
e4
fa
02
f9
0a
fa
06
00
01
f7
03
f9
f9
f8
ef
f0
e9
e4
e8
f0
f3
fb
f6
fd
fb
fd
ff
05
0b
20
28
1e
1a
0c
12
1c
1c
0d
04
0b
12
08
02
f8
0c
06
03
fd
e8
f8
f5
fb
00
f5
0b
01
f6
f5
fe
ed
e5
e5
de
e0
e9
eb
eb
ee
e2
04
fe
fb
f0
ed
fe
07
19
0b
09
12
18
1f
09
fc
fb
ff
08
ff
02
0e
0c
0b
06
05
0a
11
22
22
1f
01
00
03
0f
09
f5
ed
e6
e2
db
0a
0f
1c
13
05
06
0a
15
00
f5
10
fa
fc
03
05
f8
dd
e4
fd
09
da
d6
d6
d5
e3
0b
16
19
19
14
01
05
05
0c
0c
f1
eb
00
1e
1a
fa
fb
e2
db
f6
f4
ff
f9
f9
09
ef
05
ff
f7
ea
fe
0e
15
10
0a
00
00
0a
17
1c
1d
01
e9
ee
0f
0f
f8
e1
e4
fa
1b
22
26
20
1c
0b
08
15
06
13
0b
00
02
f8
0a
04
f0
f1
fd
0e
08
f9
ea
e5
f8
09
04
0b
0a
0a
16
0e
13
fe
fe
10
f5
f6
06
07
fc
fc
fc
04
02
00
09
09
fb
f9
11
1c
21
19
0c
08
1a
1e
15
04
f6
f7
08
0b
f8
de
da
e5
fb
f9
e6
dd
d7
e5
f9
f2
f1
ea
e7
ec
fb
fb
e8
ef
f2
00
fd
fe
fe
ed
03
fb
1c
2a
0a
16
17
f3
ee
f9
e7
02
09
0d
0a
e9
11
03
00
0f
03
0c
0f
02
0f
fa
05
0f
18
20
03
fa
f9
fa
10
ff
01
eb
f8
07
00
02
f2
ec
03
f2
00
0d
fc
12
0b
f9
0b
0c
2d
15
08
1b
1b
30
fa
ee
f1
01
05
f7
f3
eb
f1
f2
f4
f6
fe
05
00
f6
eb
e6
ef
02
f5
fd
f3
f7
07
e6
f1
fb
ff
e3
e3
f6
e6
ef
f1
f1
f3
ff
f5
f8
e9
ee
01
fb
fa
f7
02
f8
f2
03
f6
f4
ef
f2
f7
f4
f6
f3
f7
f6
ed
f4
fb
03
04
ed
e6
e9
01
ff
ff
f8
df
e1
f2
04
03
02
06
fc
fb
f9
ff
04
08
e3
ea
fb
0b
0e
eb
e5
fc
03
0d
e2
ee
fd
f4
f8
06
02
fe
0c
fc
f7
ff
ff
04
f6
ea
f5
fb
fc
f2
f8
ff
0f
07
fd
08
10
20
19
12
00
ff
01
f6
ff
fd
02
09
f6
02
fb
ea
fc
fd
fe
e7
db
f4
fa
ef
ef
f5
e9
d4
f6
f2
fb
f6
fa
f1
14
ff
f1
f5
ff
12
ff
07
17
fe
ee
fd
26
21
f8
34
16
eb
eb
13
d4
dd
eb
e1
e7
e2
f3
fa
fa
f7
e9
fa
0b
06
0b
17
1d
14
0c
13
19
18
20
34
2a
08
16
13
1b
0c
03
0c
00
09
0b
10
fc
df
d6
e2
14
0c
0f
05
06
18
18
2b
1e
1c
09
01
f1
fa
f8
1a
0d
f4
f0
fc
0b
f5
f2
ec
ed
ea
e4
17
2a
0d
04
01
f5
f1
f6
fb
fe
eb
e6
f2
14
04
f9
e7
f7
14
10
19
09
f1
0f
10
0c
0d
ec
ff
11
f6
fe
fb
ff
02
03
02
fb
03
0f
01
fe
fd
f5
02
fc
f3
ef
0c
10
04
0b
fd
0f
11
06
10
0f
03
0b
ff
f3
e7
eb
fa
03
0d
fa
fc
09
17
1a
03
0d
fa
f8
f8
f0
f2
fb
09
0d
fb
fa
fc
ff
0f
08
00
f7
f4
ff
04
f9
ec
f8
f2
ef
fe
f7
f4
dd
ee
ed
df
d2
c8
e2
f4
f4
02
f6
f2
ff
09
12
01
eb
09
10
1a
0d
f4
0f
fe
f8
fb
ee
0a
fd
f2
02
05
00
0b
17
12
ef
14
0b
11
e7
de
26
12
16
f5
fc
27
04
07
05
03
2b
0b
ee
ff
05
18
35
26
1c
3c
08
0d
f9
fc
24
e0
dc
de
f8
14
f7
db
ef
00
04
01
fd
0e
fc
f7
f4
f5
ed
ed
d6
00
0b
1f
01
de
0a
18
31
02
ea
1b
20
32
22
08
eb
fa
f2
07
0a
d6
f0
fe
07
f5
e4
fc
ff
18
fe
fc
14
1a
0e
17
1d
14
0f
f8
03
11
de
f6
da
e7
f9
0c
18
1e
1a
f1
f6
fa
05
0b
f5
f2
ef
ef
ed
10
07
07
fc
f4
0f
17
20
18
fd
05
13
24
1a
fc
0a
0b
15
16
1f
27
1c
23
1e
25
f0
cd
dc
e1
01
ef
fc
f9
09
12
d9
05
04
e1
cd
ed
06
04
f7
f5
2a
1d
ff
00
09
1c
fb
e9
f8
01
27
0f
23
10
0a
e6
f2
0a
0d
02
0a
01
00
fe
14
06
f3
e1
ea
14
f3
e6
e1
f5
02
f3
fd
06
17
fe
f8
f4
fe
0f
f4
0d
0d
04
0a
04
fa
ef
db
f2
10
f1
d7
cf
c6
ff
ec
ee
e9
e6
0b
07
04
16
1d
1c
f7
03
fd
fa
0e
f9
f3
e4
e6
00
14
fb
f0
02
ef
2a
02
05
12
f6
dd
f4
ea
df
e1
0b
08
fb
df
13
24
10
0d
00
2a
18
05
10
18
1f
f5
0c
19
29
fe
31
23
2b
1c
2b
1d
04
fc
f8
18
fd
ed
dd
ed
fc
fe
e0
d2
de
f3
33
12
07
14
2f
04
f6
fd
f2
e6
04
fc
fa
11
0e
05
f4
05
1c
20
ec
ef
12
0a
0d
e4
e7
f4
ec
f8
03
10
2c
31
21
f6
f6
02
14
1b
e1
de
e0
f5
07
dc
d8
e2
f2
01
f7
00
20
21
0d
04
e5
1c
04
ea
ee
e8
07
00
ce
db
18
f9
03
bd
fc
1a
e8
f5
f3
2d
12
09
01
21
e2
fb
fa
13
1c
f4
0b
09
25
24
04
16
2b
34
08
f8
13
18
f8
da
29
02
05
e3
de
dd
07
f2
fe
01
f0
0f
04
0d
20
0d
1c
32
23
28
34
11
2a
14
1a
2f
fb
01
e6
fd
ff
f7
f8
f8
ff
f1
f0
e4
e9
f8
00
01
03
0a
1c
07
ff
0f
0e
27
07
ec
ed
ec
06
ea
fb
f1
fd
f3
fa
f8
f9
e6
fa
ef
f0
03
de
fd
fd
0f
18
15
08
ed
f6
1a
1b
0d
f1
f0
ff
03
f2
01
f8
ff
f7
e7
01
04
00
f4
f9
17
03
ed
e2
e9
3a
23
0e
00
e6
11
fb
f1
0e
0f
fe
06
ec
ff
f6
f8
0a
e7
00
16
09
f9
f8
01
06
16
e3
f0
f1
f8
01
15
12
09
ea
fa
10
00
f2
e0
0b
25
09
05
05
06
08
ff
08
0e
f9
d6
e0
ef
02
fa
08
1c
04
f6
e1
ee
dc
d6
d6
ee
dd
d9
d7
ee
e5
ca
d4
db
f5
fb
f9
fe
0f
fe
13
02
15
0b
f1
12
1a
0c
ff
d5
24
0f
e0
cc
ef
1c
03
e0
e1
2e
1d
dd
db
f8
30
dd
c6
de
07
12
e9
ec
13
26
17
f8
18
38
2d
07
15
35
32
15
f2
09
03
f9
e3
e7
d0
cd
d0
e1
e7
d4
e1
ea
fd
f6
09
22
3f
36
19
29
46
49
2d
14
17
f4
e6
e5
03
e9
f0
d2
de
d2
00
12
f4
ee
f1
18
24
20
0a
14
16
03
0e
f1
10
17
ee
00
ff
1e
1b
22
0b
e2
dd
13
26
f5
e1
db
0e
16
e4
ec
f0
f8
f0
e5
f7
0c
d3
c8
ec
f1
f7
fc
fe
0b
0e
fa
fb
f4
07
04
f2
f8
f3
0e
06
f1
e9
f4
0d
0f
f5
db
f2
eb
fc
e7
0d
0b
14
05
f9
07
fe
06
05
fa
05
eb
f6
01
07
ef
e6
ed
e7
ee
0e
14
13
11
0b
fd
f5
00
f2
f6
19
07
00
e2
ed
13
fc
f3
d9
fc
07
d5
d1
d4
04
f3
d4
e8
f9
09
00
00
11
0b
f9
00
fe
07
10
01
ee
fb
f3
01
0c
dd
fe
e2
02
16
e6
e5
f1
fc
0c
f9
ef
07
0a
03
f6
f3
fe
11
f9
f9
fd
fc
08
fc
0c
0d
05
1e
21
f7
fa
fd
0a
0c
ef
f9
ee
f2
f3
e7
ed
f7
e7
f8
01
00
0f
ff
fe
16
0d
16
18
0d
11
0a
06
08
0b
17
07
ff
03
0b
13
15
f9
09
0c
15
18
ec
02
02
f0
f3
de
e5
ee
f2
fd
fb
e7
ed
f0
f3
06
04
02
02
f6
05
05
f5
02
fd
fa
07
f4
f2
f8
e2
ee
e8
f1
fe
e5
f4
f2
fc
fd
fe
fc
fa
f0
f5
ff
fb
f6
f8
fd
02
00
f6
03
0f
12
0a
05
ff
02
04
06
00
0a
fd
f0
00
05
04
fd
f0
02
03
fc
fd
fe
0f
03
06
0a
0a
0f
07
05
fe
fd
07
0c
0a
04
f2
03
07
01
00
f9
07
11
fd
f8
fa
ff
fc
fd
f2
f9
fd
fa
0b
06
09
09
07
08
04
04
05
01
fa
fe
f6
fc
f7
eb
f6
ec
ed
e6
f7
f6
f4
f9
fc
f9
ef
eb
f2
fd
ff
00
0b
04
f4
ec
e4
03
fa
f8
f0
e6
fe
ff
f0
03
01
f8
05
fc
0c
0c
fb
03
0c
f6
00
0a
11
ff
f3
fe
00
08
f4
fe
10
0f
13
07
0b
17
2d
28
24
f5
12
15
0a
f7
0c
f7
fd
0d
03
08
fa
fb
0a
02
0b
07
06
05
07
07
0b
02
fd
00
fc
ff
f0
ef
f3
06
0d
ef
07
0f
f7
fe
eb
ff
02
fa
ff
e9
f6
f5
15
1c
07
0f
12
ed
f1
dd
df
e1
0a
fd
e6
f8
06
02
03
f3
fe
01
f3
f6
fd
ee
f1
f3
f6
f3
ea
f5
fd
12
1b
0d
15
ec
dc
de
ea
f2
ee
eb
e5
f5
f4
f9
07
fd
fa
fe
1a
34
28
19
1e
f9
13
02
f5
05
fb
02
ec
fc
f3
f2
f5
f0
fa
e8
ed
ed
fb
fb
ef
f4
f3
07
09
01
f9
eb
f8
11
09
05
16
16
10
07
08
07
0c
00
f4
05
f3
f0
ef
e9
f6
f0
e7
f0
0b
e1
f1
e7
f6
0e
02
f4
13
fd
09
0f
f8
13
08
06
00
eb
f5
fa
f1
fe
ff
e7
f8
f9
ed
00
db
f7
fc
f1
ef
ea
f7
f1
f7
fb
f9
03
fc
f5
f6
f2
03
01
f6
eb
f2
fb
f8
f3
f0
ed
fa
f9
0d
03
01
f9
11
0c
04
0a
04
11
09
12
0c
fe
04
0b
06
05
00
f5
13
14
11
08
f4
f4
f7
f3
fb
f9
fe
f7
f6
08
fc
03
09
06
14
fd
ff
04
04
0a
06
f6
fb
f5
f5
fb
d4
e8
ed
e3
ed
d8
da
0d
ee
ef
e6
e6
02
fc
f0
f6
0a
0a
12
0a
fe
0b
0a
09
00
03
0a
00
04
0c
13
14
15
11
19
13
0b
15
0c
1a
04
f8
fe
fd
0b
d2
de
dc
e2
e4
fe
fc
f1
03
f3
f9
01
f9
03
fd
01
0a
08
0f
0d
0c
12
11
16
16
02
03
08
11
04
fe
03
02
02
0b
fc
eb
00
00
f5
ed
e2
03
fc
ea
f5
f5
ff
00
ef
fd
03
12
10
ef
0f
12
06
09
05
12
13
10
ff
08
16
0c
0a
f4
01
01
f3
ee
e6
02
fb
fd
fc
f7
03
1e
18
0f
11
fb
25
29
19
0d
12
1a
1d
11
0e
17
db
dd
e1
ec
f5
d5
d5
e2
e7
e6
fe
eb
ef
f3
07
0a
f8
01
02
13
05
07
08
0c
04
02
14
0e
0e
07
fc
1a
18
21
0c
fe
fd
fd
09
03
fe
fb
f9
02
ff
fc
fa
0a
fc
f4
00
01
fe
ee
ea
0c
0d
07
05
f8
13
0c
0d
10
0b
06
0e
09
06
f9
fb
0b
05
f2
e7
f1
f4
ea
da
df
fa
fb
f6
f7
f8
21
06
07
17
1e
0f
fc
fe
0a
12
ee
ef
fb
fa
ec
fa
ff
04
04
fc
fc
00
09
0b
0c
0b
f9
e9
ec
f1
05
f8
eb
f9
f0
12
07
fe
0b
03
0b
03
fe
04
ff
15
05
05
03
fc
04
01
f7
00
f8
fa
fe
f6
01
05
01
02
15
07
13
10
fc
02
00
ff
0d
0b
03
f9
f7
ef
f7
e2
fa
1e
e7
00
f1
e7
11
e8
fc
03
f5
f6
f7
fe
0b
07
f6
fc
06
03
0d
f7
f6
ff
fd
09
1e
fd
f6
f3
0b
13
f5
02
f9
f5
fd
eb
fd
fc
f2
f4
ea
00
04
f7
f9
14
00
f2
0a
05
14
13
f2
ef
00
1a
15
10
f9
f4
17
13
16
15
f3
10
12
14
1c
f5
f2
fa
f5
ec
fa
f0
02
0a
ff
fe
fd
0b
24
1b
09
08
0b
08
11
0c
10
20
04
0e
0e
0a
06
10
18
0c
06
07
fe
0b
08
02
05
fb
f9
ff
fd
00
ef
f1
f6
fd
fb
ea
f3
fb
07
09
f4
f9
03
14
09
fb
f8
f9
08
01
08
f7
eb
0e
08
14
11
f7
08
08
06
0c
f7
2a
0d
03
10
10
1a
07
0e
f8
fc
0e
fe
15
01
e7
ff
f8
04
fe
ef
eb
ef
f1
f4
ec
f4
f9
03
04
ff
f1
fb
00
02
06
fe
00
03
00
08
ff
09
05
0b
00
fc
05
07
01
fa
f9
ea
e5
ec
f8
07
0d
0f
fd
f0
f7
06
11
0a
f6
f5
f0
ff
0e
ff
f5
f1
fd
02
02
1d
06
d8
02
2c
06
f4
e5
ec
26
f1
e8
ec
ec
fb
f6
f0
f5
fb
fb
03
ff
fb
02
0f
ef
08
13
01
ee
f2
0e
10
05
e5
fc
17
17
0b
f8
fa
12
0f
02
fc
fc
0a
07
03
f6
1c
00
f0
09
1e
0b
f4
ed
f6
0b
05
f3
f4
f5
ff
03
fd
f8
01
05
26
18
1e
24
27
02
f2
01
0d
f8
03
19
11
0a
0e
fd
02
02
f5
fb
00
ff
f9
f3
fa
02
0a
13
12
f4
fa
f7
e2
f0
0f
02
0f
fe
06
08
f7
06
00
01
fa
f0
f9
f5
fd
fd
0d
0b
fe
10
1b
fb
fe
f5
02
14
f6
ff
02
ee
14
00
fd
0d
01
08
0e
07
08
15
fc
0c
11
03
0b
0b
fd
fb
03
15
20
02
f7
fb
1a
24
04
04
fd
07
09
00
04
04
fe
fc
ff
07
0c
06
fd
f4
ec
ea
f2
f0
f8
f6
f0
ff
0e
f5
00
f7
f2
09
f3
ff
05
fb
f7
f0
02
0f
0b
f9
06
fa
e0
d6
ff
12
0c
05
f3
fc
14
05
18
0e
f4
12
03
0b
0e
ff
04
06
fa
04
00
ff
05
06
09
ff
06
fd
f8
0a
12
eb
ef
ea
ec
06
eb
f0
f6
e7
fe
f2
fc
04
fe
f9
04
ec
eb
03
12
fb
eb
e9
fa
0d
f6
f5
fc
fa
fe
03
09
02
0a
11
f7
06
05
06
07
f8
f3
fb
11
04
f4
f2
f3
0d
0e
fd
ff
04
03
14
08
00
08
07
0b
0b
06
10
17
07
03
e8
f0
ff
0b
e1
d8
dc
d9
ec
db
d7
da
d2
df
e6
e7
e9
df
df
f4
f6
f3
f2
ea
f4
fe
13
00
f9
fb
fe
05
10
0b
f6
f6
f2
fe
05
ec
f4
e8
eb
f1
e7
f0
eb
d9
e7
04
ee
ef
fe
1a
f9
e9
ea
e8
19
f5
e5
e5
ee
04
f0
df
eb
ee
f4
ee
e5
ee
f1
fa
03
09
0c
19
22
08
03
05
1c
2d
0b
09
06
18
1b
0c
0f
03
0e
06
01
08
00
00
f7
27
1f
17
1e
17
fa
01
fa
fa
f2
ea
ef
f6
f0
ec
fa
00
02
02
04
f0
fc
ff
05
02
02
07
14
17
1b
f9
fb
03
00
f6
02
fa
06
01
e8
09
fb
fe
f8
f4
ff
02
00
f6
f9
11
17
fe
ee
eb
0f
22
2d
01
e0
02
0e
20
16
e8
05
10
0d
14
0a
f3
0c
06
05
10
0b
08
f5
f4
16
00
f8
e7
e2
fa
f4
ed
ee
e5
e4
ff
f8
02
00
f4
fa
f8
04
ff
fc
05
07
08
03
fe
14
0b
f1
ef
15
0a
fb
ec
de
06
ec
ef
ed
e2
eb
f6
f8
ff
f6
ee
ed
eb
f3
ef
e7
fc
05
15
08
f6
fb
ff
10
0d
ff
fb
fc
01
04
f8
f0
ed
ef
f4
e5
2c
16
0c
ff
ff
15
0a
19
03
ea
13
fb
fa
00
f5
0b
f9
f2
fa
01
0a
fd
f7
fd
f8
08
17
11
07
05
14
1e
1b
0f
0d
fd
04
02
fe
fb
f9
f9
f7
f9
f7
fc
fd
f9
f9
f5
fc
0d
0b
12
0e
01
0e
0c
07
08
f7
07
02
ff
fd
f6
01
f8
f9
f5
ef
fa
f5
ff
f6
0f
fe
f6
03
f8
05
fb
fb
09
ff
fc
fc
fc
08
fc
fa
01
03
07
fc
f3
fc
f8
fb
f7
d7
ee
f0
f8
03
f3
01
fc
ff
0d
04
05
06
0a
17
14
13
18
14
21
14
0f
14
18
17
03
04
fa
fe
fe
ff
fd
f4
f5
f9
f5
f3
ed
f5
f8
fb
f8
f4
fb
00
f9
fd
f7
fd
fe
03
01
07
04
fd
0a
0a
0f
0b
04
02
06
0c
08
ff
0a
10
09
0b
02
0a
0e
0d
0b
02
f1
f2
f1
f2
f5
fb
fc
fa
f9
fd
f2
f2
fa
f6
f5
06
01
04
0b
06
ff
fb
fb
04
03
fe
05
02
0a
07
fb
03
fd
06
03
f7
fd
fb
03
03
ff
06
ff
06
09
fe
01
fb
fc
04
18
fc
f6
00
f6
18
05
07
0e
06
10
09
04
02
06
06
09
fa
fe
02
02
08
f9
03
04
06
0d
0f
0a
07
fe
07
07
04
fe
f8
06
03
01
fa
f4
fd
03
01
00
fb
02
01
04
fd
fb
f5
fa
fe
03
ff
fc
01
03
02
f8
f8
f9
fe
02
ff
fd
fa
03
07
ec
e7
e8
f4
f1
f4
fa
fb
f9
ea
f2
01
02
fb
e7
f7
07
05
01
f1
04
11
0f
0e
ff
06
14
11
0c
02
04
f4
f5
f6
03
05
fd
01
00
0f
0a
01
0b
05
0b
0a
03
08
08
0b
00
f9
fa
ff
01
00
14
1f
14
01
05
13
16
11
04
fc
08
10
0b
fc
fc
0a
10
0a
ff
ea
f8
fc
fc
ea
01
02
01
05
fb
01
fd
fe
01
00
01
fb
fc
fe
fe
06
04
01
01
fe
07
07
04
06
01
fa
ff
fa
03
05
f9
fa
f7
fc
04
fa
fb
f5
f6
ff
fb
f3
f2
f0
f3
04
00
00
ff
ff
fa
00
ff
05
0f
fd
01
00
00
04
03
05
09
03
0b
0a
03
09
03
0b
04
f9
fc
f5
fb
04
ff
03
01
fe
06
05
0a
0c
09
06
04
ff
07
03
05
00
05
09
04
02
fe
f9
00
fb
f9
f4
f7
f7
f4
ee
eb
f0
ee
f0
ea
e6
ee
e7
ed
e7
e1
eb
e7
ee
f0
ed
ed
ef
f1
f2
fd
03
fe
ff
f1
02
04
f8
fa
fe
09
07
02
02
07
0b
0e
0a
0c
03
10
0c
0a
08
fd
f8
01
f5
05
0a
08
0e
fc
06
ff
01
04
f7
f9
0a
0b
09
fc
05
ff
02
01
fb
fb
f9
04
f9
fe
fc
f4
fd
f8
f8
f6
fb
fe
fd
fd
f8
ff
04
00
01
02
f6
fc
f8
fa
f8
07
fe
08
06
05
f8
f1
f6
f6
f7
fc
f7
f7
fa
f8
fd
f9
f1
fb
fb
05
00
fe
07
fd
10
12
0d
0d
12
fa
02
fd
01
0d
ef
f7
f3
f5
03
f5
fc
f9
fd
04
fb
fe
fc
02
09
f6
f7
fc
09
0d
f9
f5
fa
04
0c
fe
02
ff
03
09
fe
01
fd
00
04
ef
f9
f3
f7
fb
18
17
0d
14
11
12
14
0b
0a
08
0c
09
09
00
fc
08
05
09
05
03
ff
ff
07
ff
01
0d
07
f7
01
04
08
03
00
07
04
06
02
04
03
ff
fa
fd
fd
f8
f8
f1
f5
f3
f2
ef
0d
0f
01
ff
05
12
02
08
0a
08
0b
fa
08
0f
0a
00
fa
02
10
06
02
fc
fe
08
fd
0d
04
04
04
00
08
fa
fa
fe
fd
f8
f1
f3
f4
ed
f4
f1
f7
f0
ea
f4
f9
f9
f7
f4
01
04
04
06
10
fa
01
0c
01
07
fc
01
09
01
03
03
02
01
00
05
0a
04
01
01
05
eb
ec
eb
e6
f2
f1
e7
e5
e1
ee
fd
f3
ec
ed
f7
02
fe
f8
f9
0a
05
02
fe
fd
07
06
02
fa
ed
ed
00
f4
f8
f2
ec
ff
f3
f7
f5
ec
fb
f6
f5
f3
ec
fc
fa
f2
f4
ee
02
f4
f7
fa
03
12
f6
ff
fa
10
15
fc
f3
f8
15
08
f1
e0
e9
0c
0c
f2
fe
0e
1f
07
fe
eb
f4
db
05
10
f5
f6
ec
0e
14
01
fc
f2
f1
02
05
f9
f2
fb
fb
f2
08
ff
05
03
01
18
0a
f1
f2
03
20
01
f8
fb
18
21
f9
f4
0b
1b
06
f2
0e
1b
0b
f7
f6
31
10
10
10
0d
2c
0c
02
fc
04
23
1c
0c
f5
fd
02
04
07
fa
01
0b
04
f2
07
09
f5
ed
f2
f8
f4
02
02
0e
08
00
f0
fe
12
10
fa
eb
fb
14
19
fb
ed
f9
0e
0c
f3
ff
0a
0a
10
10
08
05
06
09
0c
0f
07
f3
f0
07
0b
fc
df
e2
0c
1f
01
f3
ff
29
0d
04
00
11
18
fe
f1
ef
f5
f0
f7
fc
f8
f4
e9
e9
03
02
00
ea
ed
f0
e0
f4
fb
04
04
01
00
0c
fa
03
03
08
06
f5
04
03
0b
02
fc
05
08
0e
04
f5
fb
fc
05
05
0a
1e
10
0f
f3
03
14
13
05
ff
fd
05
0e
fc
04
f9
fb
f9
f4
0a
fe
f2
e7
fe
23
fa
f4
00
f6
e9
0b
ff
0a
05
00
16
0d
00
07
13
13
13
e7
f6
09
25
11
fe
01
11
06
08
0f
0e
fa
04
05
13
09
fb
f9
fd
fe
f9
f5
01
fe
f8
01
09
fe
ed
f1
04
0d
16
14
fd
12
14
10
03
f5
0f
0f
08
fe
ed
0a
10
fd
f2
df
fb
14
0f
ff
e9
03
23
0a
0b
27
1c
13
16
fa
20
12
23
0f
fd
08
10
1f
07
00
f7
01
14
1a
06
fa
f2
04
ef
fb
04
fb
f8
f0
02
19
13
00
fc
f9
0a
09
08
06
ef
d6
e9
0b
21
f9
d7
f6
18
e1
f8
fe
f9
e9
f1
f9
fa
f3
ee
f8
fb
eb
ed
f3
05
ff
0a
0a
01
fc
f9
15
03
fe
07
f0
f0
f1
dd
17
07
07
f2
ed
0d
17
0c
f8
fa
f6
04
ff
f2
fd
05
01
fe
1b
14
01
01
f1
ea
ef
0b
0c
f7
e2
e5
00
10
0a
f5
ec
ef
04
1a
16
f8
f2
f6
0e
20
09
f3
00
02
05
fd
f3
f3
f1
fa
09
fb
f1
f5
02
0b
f7
fd
0d
20
1c
fa
03
12
18
15
00
f9
06
0b
0b
ff
f1
02
07
10
fe
f9
f1
f9
03
fa
07
03
ff
fc
0f
0d
0a
0d
1a
0a
07
05
07
e1
11
04
08
0d
fa
ff
f9
f2
f2
e9
10
0a
04
ff
01
21
0d
f3
f2
06
04
0f
09
05
e4
00
0e
08
02
e3
0e
0a
0f
01
ec
09
fe
f0
e2
d9
18
02
e7
e2
f9
ed
e6
e0
f2
f9
f0
e3
ee
f5
f3
f6
ef
fb
f6
f7
fd
fa
ee
f4
02
08
f8
d8
eb
04
09
09
07
f4
f9
ff
0a
18
ff
f9
f8
11
11
07
fe
f6
00
ef
f3
f4
f1
f8
f1
fa
fc
ef
11
12
fa
f1
e8
fb
0f
00
ff
f8
f8
fc
04
09
fb
0a
0b
02
fe
eb
f9
0b
05
f2
1e
04
f8
f5
ea
13
0f
f9
ee
e6
16
1b
fd
eb
d5
fc
05
08
f2
db
fd
fb
0f
07
f4
fe
f1
dc
e7
e8
fd
f8
ec
f1
f2
08
02
0e
05
fd
f4
00
0f
fa
f6
01
07
0a
03
02
04
fd
f8
02
12
02
02
04
fd
ff
fd
08
05
04
f4
e4
f8
fb
07
ed
e5
f8
f9
10
f4
c8
f6
06
16
1d
cf
e5
04
1f
2b
d2
e9
04
2b
3a
e3
dc
ef
16
25
fd
f3
fb
00
13
f9
f0
d9
cf
e7
03
f6
e4
d5
e0
f3
04
1c
0d
f5
e1
03
32
28
08
01
13
36
21
0b
08
03
fc
00
0a
fa
fc
03
ff
f8
f8
04
1a
1c
0c
f1
f2
0a
07
06
05
03
08
10
15
11
09
09
10
0d
0e
08
16
14
01
ee
00
11
fe
e6
e6
06
0f
ff
df
e3
ee
fb
fe
ed
ee
0a
0e
ff
02
e3
f4
f9
f4
fc
e8
f4
ee
fb
03
f5
f4
ed
fc
ff
10
0d
f8
e7
e5
0d
07
f8
0c
0a
04
fe
f2
0a
ff
11
06
04
06
17
06
0b
0c
ff
0e
f3
09
ff
fe
fb
fc
fa
f9
04
00
fe
0c
fa
0e
fb
08
14
10
f8
0c
0f
11
17
f0
f4
fa
0e
00
fe
f4
08
00
f3
0f
f5
1b
0c
ed
f4
fc
08
15
fc
f2
fc
05
09
15
03
07
12
10
0d
0f
09
06
10
02
02
0e
00
01
03
06
0d
02
fb
f0
00
fb
0d
01
f9
01
fd
04
02
05
06
04
fa
fc
00
03
f9
fc
02
08
0c
00
03
0a
02
01
07
fb
01
f7
f5
fd
03
09
00
f7
00
10
06
f2
09
11
06
0e
f3
09
06
10
0b
0c
00
14
01
fe
06
ff
fe
f1
fa
f3
02
e8
01
fb
fd
fe
03
09
f7
f3
06
fa
0c
0d
f9
fe
03
06
0e
0a
ff
05
03
03
0a
01
fe
04
f6
ff
fd
01
02
f6
f5
02
02
fa
f9
fe
fb
f9
f8
f5
f8
f7
f3
00
f6
f8
fb
f7
ff
f9
f7
f3
fd
04
09
05
f3
08
fa
01
0f
05
fd
fc
08
05
06
f6
05
01
09
09
00
09
f6
eb
13
12
12
07
f8
07
16
f5
0d
fe
fe
f9
ef
0c
ff
fc
fa
f0
f7
f9
f2
ef
e8
e5
ee
ef
eb
fa
f1
f7
f8
f7
06
05
fb
fa
0a
03
06
ff
f6
04
00
08
03
fc
01
04
0b
01
05
04
05
05
ff
00
04
f5
f3
ec
fa
fa
fe
f6
eb
01
04
fc
fb
f4
02
04
0b
f9
0a
0b
0b
0a
ff
f6
fb
04
02
0b
fb
01
06
05
02
0a
fa
03
fc
fe
07
fc
ea
0d
14
00
16
15
10
05
05
03
11
0c
f9
fb
03
09
03
00
ef
08
09
fc
fd
f1
ff
04
21
ff
e9
11
09
06
0a
ef
fd
0c
f3
f7
0a
eb
02
f0
ef
f8
f6
df
fd
09
e9
01
e8
f2
00
04
1b
0c
ff
ef
00
17
0a
20
f4
fd
12
07
0b
04
f0
f3
f9
05
08
ff
f6
f3
e7
f5
f9
f8
f0
ef
ee
f9
f9
f6
f1
ec
e8
f8
f7
f5
f1
f2
ed
f3
f6
f6
ff
ee
fc
f7
fd
e7
f3
fd
ee
f8
ec
ed
f3
e4
f3
04
fa
f0
e7
f3
fc
fb
ea
f1
f6
fe
fc
f3
f3
f0
06
ee
ff
02
ff
fd
1a
fd
01
0a
f3
13
04
fd
01
04
f1
1c
fe
f6
00
f2
11
04
00
f8
00
09
09
f2
02
fd
05
0c
ec
f8
f8
05
11
0d
f1
fb
01
fa
0d
eb
f4
f7
ee
f3
ff
fe
ff
f1
ec
02
f9
fa
f3
08
03
fb
f8
f8
0b
fb
f5
ff
f5
f9
f8
fc
f3
f9
fa
f9
fc
f5
f8
f6
f9
f5
f3
f8
f3
f4
eb
fe
fa
f7
f5
f1
fa
f7
f4
ee
f8
ea
02
fd
ff
05
07
f4
fc
0c
f7
fb
f9
02
0f
05
01
fb
01
f6
10
f7
0e
0f
03
0e
11
04
f3
ef
ee
00
f8
0e
00
dc
fd
02
0c
0a
f6
f4
02
f7
08
00
ed
f8
f8
04
fa
f4
0d
e3
06
00
0a
01
05
0e
32
f6
fe
ff
fb
fe
0d
0d
10
15
f9
17
0f
13
09
17
15
fa
fe
ff
fc
f6
f8
ee
f0
fc
fd
00
01
fc
07
09
09
01
07
02
03
0c
0a
0c
0b
05
0d
1a
0f
19
fb
fd
0a
fe
e5
f7
f3
f9
0e
e5
fc
f8
ec
f6
f3
fd
03
f4
ee
01
fd
03
ff
e4
f6
1c
ff
27
05
ef
0f
f0
05
15
ff
ff
f3
f6
10
23
07
fd
ff
01
25
27
f9
fb
e7
f5
fe
ff
04
ff
ef
ff
f5
05
03
f4
f7
f1
fd
fd
fe
ea
f6
fb
fd
ff
f3
ff
fc
fa
fe
ff
fd
01
02
06
fb
04
fd
fe
0d
01
f7
ff
00
03
00
f9
fa
00
03
ff
f8
f3
00
fa
eb
02
fe
fd
fe
f3
06
09
02
09
05
11
06
03
02
0d
09
08
04
0b
08
12
0e
fa
00
1d
05
1a
0e
eb
09
fd
0a
07
fa
f9
fa
00
fb
16
ff
fe
f6
f8
0d
08
0b
06
09
0e
0b
01
0e
14
15
0b
0b
12
13
0d
00
14
15
1d
21
13
0c
09
06
07
02
02
0d
07
05
04
01
08
0c
0b
0b
fc
00
07
0d
11
f7
fb
fa
09
16
f4
f7
f9
06
09
03
fe
ff
fd
f8
06
07
05
03
00
04
08
03
fe
f8
05
09
08
06
01
f8
fc
02
04
03
01
0a
14
16
1e
ff
03
02
04
0a
f8
00
fd
ff
04
00
03
06
05
06
fd
00
01
03
09
fc
f8
f5
f8
fb
fd
f8
fc
f9
f8
02
fa
ff
fd
fe
fd
fc
fe
02
05
08
0a
02
f9
fb
11
07
05
0e
0f
fe
ff
f9
fc
fe
03
01
fe
00
fd
07
fe
f7
04
01
fd
f4
e9
f4
f3
07
0a
0b
fe
01
00
02
08
06
05
f5
f7
06
04
0c
f0
f0
00
0a
0c
f5
f3
fa
f7
01
05
09
01
f7
ef
fb
01
02
fb
f3
f1
f2
fb
f6
f0
ef
f4
f6
ef
ef
f6
fe
fc
f5
ee
f9
00
fc
ff
fd
03
06
02
ff
00
01
ff
f6
fd
ff
fb
fd
fa
ff
f8
03
08
02
fe
fa
01
fc
fb
02
ff
13
06
fa
05
02
09
fd
fc
fe
fc
10
12
0c
10
08
0c
08
06
12
0c
f6
f7
f7
f3
fc
00
f7
fc
fb
07
fc
e8
e8
f5
04
00
f2
f1
f5
07
02
f3
f4
fb
06
10
fb
f1
ff
0a
09
f1
e9
fb
0e
fa
e4
d6
e9
04
08
ed
e3
f3
0b
01
ec
e0
f3
03
1b
1e
14
07
fe
07
12
0e
08
f9
0e
10
0e
02
fb
fd
00
00
fd
fe
f5
f8
fc
fd
fd
0b
fb
f8
0b
18
12
fc
f2
05
0d
13
f8
e5
f3
00
1f
ff
ea
f8
05
1d
04
f9
02
05
fa
f9
fa
ff
04
fd
fc
fe
02
00
f8
f3
fb
fa
fd
f0
f4
f3
f1
ee
f9
fc
f9
f0
f0
fb
f7
f5
fe
f9
fe
fb
fc
f8
ef
f9
f8
f8
f5
f5
05
08
0c
08
03
05
fd
fe
fb
f5
e9
f7
f2
e8
e7
f7
03
00
fa
f4
ff
0d
08
fa
f5
18
1f
17
09
07
05
18
13
07
f9
f4
f6
f6
f6
f7
00
01
fe
fd
fa
08
0e
04
ff
fc
fb
f3
ef
f8
f5
f3
f6
f1
ef
ec
08
05
02
02
02
02
06
03
01
02
f8
03
06
08
06
f1
ee
ee
f4
fd
ea
e8
ea
f7
f6
06
04
00
03
01
11
0b
0b
04
04
0e
04
0a
07
ff
0b
0c
0a
09
ff
f8
fd
02
01
fa
fb
01
05
04
01
f6
ff
05
04
01
f6
fc
00
01
f9
f6
f8
fc
fa
f8
ec
f1
f3
fa
f3
f9
03
00
01
02
07
0a
03
05
02
fd
fd
f8
f0
f2
0d
06
ff
f9
f8
0f
17
12
06
fd
0b
02
0a
fc
fc
09
0a
0e
03
05
07
0a
08
06
07
11
0a
0d
04
06
17
16
14
0b
0a
f8
fb
fb
fc
fd
f2
fa
f5
ff
fb
f3
f5
f8
fb
fb
fb
fc
f9
04
04
f3
f0
f2
ff
01
fa
f1
ef
f7
ff
fe
f8
f2
f5
fb
01
f6
f4
f9
f9
02
fd
f9
fc
fc
00
fe
f4
fb
ff
eb
eb
f3
f6
f8
f8
fa
01
06
fb
f3
f6
ff
03
02
fd
04
0b
10
0c
fe
06
0e
0e
09
ef
f2
f2
e7
f2
ea
e9
e9
ed
f6
e9
e3
e6
e6
f6
e9
e1
e0
e1
f3
e5
e4
e2
e6
e8
fa
00
fe
00
02
fb
03
ff
01
00
ff
01
fe
03
0a
fe
08
07
08
07
f6
07
0f
11
0e
05
fe
fe
01
ff
07
0a
0f
0b
08
0f
19
15
0e
0d
1c
22
21
1f
12
15
21
21
19
0a
0d
07
fe
03
06
04
fd
f6
f6
00
0c
f8
f6
ff
04
0b
fe
fa
08
10
06
fa
f4
f8
03
fe
f8
f7
fc
f4
fa
f2
f8
f5
ef
01
f8
fb
02
fb
ff
f0
f7
ff
fa
fc
f4
fb
00
00
04
05
0b
0b
07
04
ff
00
fe
fe
04
f9
f0
ef
f2
fb
ec
de
de
e0
00
f6
ef
e5
e6
00
08
0d
10
07
fc
0c
18
1f
07
ef
fd
0a
06
f1
f6
04
09
0c
f0
f1
06
0b
00
ea
f1
f3
fc
fe
fb
e6
f8
fa
f6
f7
e7
f5
06
0f
16
f4
f2
fe
07
19
ef
ea
fb
0b
08
f8
fd
f3
0a
14
01
ff
ed
ff
08
fd
02
fd
02
00
f7
06
01
0a
0a
f2
08
fe
0b
06
ff
f7
ff
13
07
03
f8
fa
10
06
ff
00
f8
00
00
fe
05
f8
f6
fa
f8
07
ff
ee
e9
fe
ed
f2
04
fb
f8
eb
f7
09
08
fa
f1
fe
0b
07
00
fa
01
0b
06
f4
f3
fb
00
f7
f8
05
fd
fd
f4
08
13
ff
f8
ec
fb
06
ff
f0
db
fb
04
01
ed
de
f4
fe
fb
f4
e5
f4
de
dc
05
06
f2
e1
dc
02
04
fe
f0
e7
0d
12
07
f5
f0
12
15
20
ff
06
21
1d
12
05
f7
03
0b
0c
05
f0
02
06
0e
ff
f2
02
03
09
fe
f3
06
0a
0c
ff
f4
0b
0e
0e
f9
fa
fa
f0
14
f6
f6
ed
eb
11
03
08
fc
ff
13
0a
06
fa
fc
12
0b
03
f3
f0
ff
0a
10
0a
07
f9
01
12
0e
02
ef
fc
06
fc
fa
f4
00
09
fc
eb
e1
f6
04
f7
de
04
f2
dc
f1
03
02
eb
e4
ef
fd
06
fc
f7
fe
f9
08
00
06
11
05
01
fa
f5
04
04
11
01
f3
fc
09
13
08
f5
03
10
07
fb
e3
f9
0b
10
06
f3
06
14
fa
f2
e5
fa
08
f5
05
eb
f8
f1
0a
17
f7
09
00
01
0d
f6
fe
f5
f7
00
fb
00
eb
e6
ef
f6
02
f3
f5
1b
1c
10
dd
f4
22
24
0f
e5
e2
1a
21
07
d1
e6
28
35
1b
d9
ce
07
15
01
c6
fd
03
06
03
ff
fd
05
0f
04
ff
fc
08
08
ff
fc
0f
08
fd
02
fc
0c
0a
0a
09
f9
25
0e
04
03
ed
02
fa
fd
0d
01
f7
fb
fc
f8
fb
05
13
0c
fd
f8
f4
fa
fb
ee
f2
0b
00
04
01
f5
0a
ff
01
01
f8
0b
01
06
04
fa
15
15
0b
04
fe
07
10
0f
05
f4
07
08
08
fd
fc
13
07
0d
09
03
05
02
10
08
fc
04
fc
04
01
fe
02
fa
06
07
fa
01
08
0b
05
08
0e
08
07
0a
0a
06
fe
04
fe
07
fc
ff
08
f9
05
f9
fb
01
fa
f1
0c
fc
fd
00
00
f1
f9
02
08
fe
ec
f3
fd
0d
0d
f7
f2
f0
fc
11
f2
fa
04
0c
06
fb
ef
f0
f9
ff
f9
f7
ff
06
00
fd
fe
06
16
13
00
0c
ff
03
0d
01
0a
06
08
06
00
12
19
18
04
fd
0e
13
11
03
f8
05
0a
07
fc
f3
07
0a
0e
fb
de
f3
04
01
f0
f5
00
00
fe
fc
fd
00
fc
f6
f1
f7
f7
fe
fb
f3
14
16
0f
11
0b
0f
0e
0d
0e
05
06
f6
ed
f3
15
08
00
f8
f4
09
0a
eb
eb
01
19
23
f3
03
1e
2a
fd
ed
f5
00
0f
f8
ed
ea
f6
07
f1
e9
e5
f5
0b
f4
e9
ea
fe
19
fe
f6
f2
03
23
01
fd
fd
09
12
fa
f7
f3
02
09
00
fa
f0
fa
00
05
01
00
ff
05
04
07
05
07
04
06
11
13
0f
06
f8
fc
f7
0a
16
f8
fa
f9
06
00
f3
f4
f6
00
fb
03
f9
f5
06
12
16
06
f7
07
1c
06
04
05
f2
f8
ff
00
00
e1
df
14
00
fa
e9
e2
1f
04
f3
f6
ef
14
03
fc
fa
f8
01
f3
ec
f0
f8
01
fe
fc
0f
17
1a
14
13
1d
1f
20
1f
22
24
20
f5
f5
fb
f5
f0
fd
ff
11
0e
05
f9
ef
f8
fc
fb
fd
ed
fc
0a
09
fd
dd
e1
fe
10
01
e5
e8
fe
11
fc
f5
f5
fe
09
ff
f5
ec
f2
01
ff
f8
fd
ff
01
ff
f1
f8
02
03
07
03
03
11
13
f8
fa
f4
ed
fe
00
f8
f7
ee
f1
10
06
04
01
f7
0d
f4
f8
05
f8
f8
ea
ed
f9
f8
04
10
13
09
f3
03
0f
15
0e
fd
05
10
10
09
01
0f
16
15
12
0a
f9
02
06
07
00
02
04
0d
0d
11
07
00
09
fe
06
fc
f9
fc
f9
fa
f2
ec
f9
fa
08
ef
ee
fd
03
0d
1c
fe
ff
f9
fb
09
fa
03
09
0f
08
f9
01
ff
04
17
03
01
fd
05
0e
0a
14
ff
f8
1b
26
0d
21
06
0c
05
f1
f9
ef
01
f7
df
ec
e5
05
03
f8
0a
03
10
08
06
16
06
fd
06
05
fc
fa
f3
fc
fd
f8
f1
ea
f8
f7
f2
f2
eb
f6
fa
f2
f1
eb
ef
ee
ee
ef
ed
f4
f7
04
ea
f4
fc
0b
0f
f8
f4
f9
fe
04
ee
f9
07
0a
12
f9
f7
03
01
0a
f4
03
0a
fe
06
11
fb
00
f6
fc
0b
02
02
f6
f7
00
03
0b
00
fd
ff
11
14
10
0d
0f
fc
fa
0b
06
04
f8
f9
05
fe
ff
ff
f9
fd
fb
f9
fd
f0
f9
f6
f6
fd
fc
fe
ff
fd
0c
08
fe
0b
09
f9
fe
fb
fb
fd
fb
f7
f3
f1
ec
ff
ff
f9
f7
f3
fd
05
0a
ff
fc
f1
ec
02
fd
e7
00
07
21
1d
04
f8
06
19
1a
03
ed
f5
06
05
f8
e3
f2
00
02
ed
f8
f9
fb
02
06
f8
f8
f9
00
02
f2
ef
ec
f3
fa
fc
fb
f7
04
02
f6
fe
fd
04
00
ee
08
12
10
0c
f6
06
0f
0a
0b
f0
ef
f3
f8
f7
ff
05
04
01
fd
fc
f8
ef
e9
ee
08
11
f5
05
04
f8
f5
ec
fe
f5
fb
f2
f8
01
f6
0f
05
0d
16
07
f9
02
fe
08
04
e7
0b
17
17
fc
e8
08
1f
18
08
e1
f6
0b
09
fa
05
1c
27
22
17
ef
fc
07
06
f6
f9
fd
12
10
f5
ee
e4
01
ef
e9
e3
ea
07
f7
eb
e4
df
f4
ea
de
e8
e5
ed
ed
e1
0d
f1
e8
f9
19
1f
f2
f3
fd
06
20
fe
f8
05
0c
12
02
ff
06
14
f8
f1
ed
f2
fb
fb
fd
f7
eb
f1
0d
04
01
f3
fc
10
07
fd
ef
fe
09
01
06
f6
05
01
fe
09
fe
02
f7
ff
0d
03
ed
ec
fc
10
07
ed
f2
f7
0a
ff
f1
f8
f9
04
00
00
0a
01
09
0a
fb
19
0f
0d
07
0b
05
05
03
02
07
00
0a
05
ff
fd
fe
f9
f3
f7
f0
f9
f1
e6
ec
e2
ee
eb
fb
04
e8
fa
f2
02
fd
ef
f8
ed
08
0b
f2
f3
f2
f9
0b
01
f7
f7
07
14
0a
f0
ec
f5
01
ff
f6
f4
00
08
fe
f0
fd
0d
18
0a
f5
02
0a
0f
0d
ed
01
14
11
fe
d7
f6
f1
06
f6
e4
fc
06
18
09
ed
fb
01
13
07
fb
f9
fe
09
06
fc
f8
ff
02
f9
e4
ed
00
fe
f6
f1
f5
0f
04
01
fa
ef
05
01
06
f5
f2
fd
fe
05
f6
f0
ff
02
03
fd
fd
0a
fd
f4
f0
04
08
f5
f4
04
12
10
04
07
09
0c
07
ff
08
fe
fd
f2
f5
01
03
f8
e8
ee
fc
14
05
ef
f4
00
1f
0c
f1
f7
00
18
0f
01
07
0a
08
fa
fa
ff
0c
fc
e3
e6
e9
f1
10
0e
06
f5
02
0e
11
04
f0
f8
15
16
0b
ff
02
08
18
14
08
00
f9
00
f7
04
06
fe
0b
0b
0a
0d
00
07
03
00
07
06
04
fd
f2
06
04
00
fa
f3
f8
0f
1b
29
09
fd
f0
05
18
fa
00
e8
f6
0f
fe
05
f5
f9
0c
f7
05
f4
fc
05
00
ff
0f
0c
06
f4
fa
ff
03
00
eb
f7
f5
fa
05
fa
fd
07
12
17
11
11
ea
e9
e7
e2
ef
f3
02
0e
0a
f5
e2
f9
06
04
f9
f2
08
13
12
09
02
0a
09
0c
0a
f7
f2
f5
fa
f1
0a
0d
04
0a
03
01
03
fa
f9
01
02
fe
f5
f5
fd
01
fe
ff
fd
00
00
07
08
fe
00
0e
0e
13
0d
f8
f8
f1
08
0b
fb
f9
f3
05
08
fe
04
f4
fb
ff
f8
fe
f7
02
fd
fd
19
05
fc
05
0e
06
10
0d
09
0d
0a
03
0d
14
fc
19
f5
ed
13
1b
10
05
f7
01
0d
ec
fc
f8
f8
ed
eb
f7
f3
f8
f7
05
f4
f7
07
fe
0a
09
f8
03
fe
ff
04
0a
fe
f6
0b
05
04
05
f2
0f
01
05
0a
00
f2
eb
01
06
0a
01
f9
f9
00
08
fa
fe
fa
fe
09
e8
f5
e7
ed
f1
f0
f4
f4
ed
f3
06
fe
fa
f0
e7
1a
0c
0c
0c
fd
14
16
14
1b
0e
f1
f6
ef
f0
fe
f6
ff
03
fd
0a
f6
fb
09
09
0d
02
fd
fd
0f
12
03
07
00
0d
14
06
04
06
04
0a
f7
ef
e3
f3
06
fc
00
f8
04
0b
f2
0b
0f
0d
f9
01
ff
fb
01
02
fb
07
08
fe
f4
f3
05
11
fa
ed
00
0b
13
08
02
f4
e7
f2
fa
f8
f3
de
dc
ec
f4
00
16
1c
12
fc
05
0b
0d
08
04
fe
01
fb
00
fe
f0
f2
f2
f2
ee
f2
ef
f8
f0
f3
e9
e4
ec
f3
ec
f8
f3
fd
01
ff
f2
07
03
f9
fc
05
03
ff
00
06
0a
0b
07
1a
04
ff
06
0e
01
00
f4
0b
16
07
f4
04
06
03
0d
00
05
07
02
10
04
00
08
05
08
00
df
ed
f9
ed
ed
e8
ed
ff
fc
f5
04
eb
ec
f0
0a
05
fb
ed
f4
07
02
fd
06
01
00
11
0b
10
13
0e
12
00
04
03
02
13
f8
e7
f1
fe
18
07
fb
fb
fe
1b
12
0e
0b
03
01
11
19
0c
fe
ff
fc
0c
06
f8
fe
00
0f
0c
ff
fd
09
0f
0a
f4
12
0a
11
15
0d
20
17
0d
1d
3a
0a
f9
f0
07
26
00
f9
f0
f4
09
17
06
01
ff
12
28
14
0c
0f
18
10
05
02
03
fe
fe
0d
28
0e
f2
f6
fb
17
07
fd
09
00
f3
fd
02
00
07
07
f2
f8
ec
e7
f8
fe
fb
f3
f2
f1
eb
ef
1f
11
f6
ec
f5
2a
2a
1e
07
fa
0a
10
27
15
f4
f4
f3
ec
ec
f2
01
05
f7
f0
fb
f9
fb
f5
e9
ed
f1
f2
ef
eb
e8
ec
f7
fa
fd
ee
f8
ea
fb
fd
eb
ee
fb
02
fe
ea
ef
05
01
f9
f6
e9
f3
ee
f3
ee
f5
f4
f2
fc
fc
eb
04
fe
fd
01
05
04
fe
fd
fe
fb
08
12
11
0a
e7
fd
11
11
11
f8
08
0d
09
11
00
f6
03
06
fe
0d
03
f5
f4
fe
01
fe
f8
ed
eb
f1
f7
09
06
e3
02
fd
01
0a
f1
07
0d
f7
fd
04
f3
16
10
f9
fb
f7
ef
f6
f2
f0
04
ee
e9
fa
f0
ec
f9
05
00
e8
f5
fc
fe
00
04
f4
f2
f6
fb
07
ea
e6
f4
f4
f7
04
f6
fa
f5
f4
02
0d
03
fe
00
ff
fd
0c
05
07
04
0e
0e
09
09
06
06
03
06
10
09
00
01
fd
00
02
05
04
fd
f7
11
1d
18
05
01
06
0e
03
08
0a
ff
02
11
11
07
e5
07
21
0b
f7
f8
ec
fb
00
fc
fc
05
05
01
f8
04
12
0c
f8
f8
06
07
0e
fb
f2
1b
02
03
02
fa
0b
0a
00
fc
02
ec
ec
ea
ef
f2
03
fa
fd
fe
04
05
f1
f9
fb
ff
0d
07
ff
03
03
f8
04
00
08
03
f4
0b
1c
12
fc
09
15
17
07
0a
0b
03
e5
f0
06
f1
f9
e9
e7
ee
db
e9
f8
e3
d7
02
13
0d
03
04
f8
05
ff
1a
17
ee
00
fb
03
0f
e2
fb
ef
f2
fe
e2
f7
ff
07
0b
05
f7
f5
f3
fb
03
fb
02
02
04
f2
01
0b
07
05
07
f8
01
01
10
0f
fc
fa
fd
11
05
09
00
07
14
fa
f9
fd
00
13
0c
08
06
03
0e
11
03
03
05
03
16
07
ff
03
07
f4
f3
f6
f1
eb
00
f1
fa
ff
ea
12
07
05
0b
02
02
0a
0a
fd
f3
e9
f3
f6
f1
e8
17
10
0e
11
fd
00
03
03
1e
04
00
fc
03
0c
04
f2
00
f1
e5
f1
f0
fc
f4
ed
f2
fe
f8
01
ff
fd
fa
f8
fe
04
01
00
06
0b
05
00
fd
08
0c
0b
04
fe
0f
12
0d
fe
e8
ec
e8
fc
04
02
f9
f3
01
06
f5
e6
e8
f7
fe
fc
e9
e8
ef
f5
fb
ef
f6
fa
f5
13
17
06
05
02
08
14
04
09
08
00
0b
06
08
01
02
00
00
05
03
fc
f8
f9
fc
f7
fe
1d
20
06
01
fb
1f
21
07
fa
03
11
10
08
02
05
fa
f5
01
06
04
ec
e3
fa
02
ef
ee
e7
ee
fa
f5
f4
e7
f2
fb
01
fc
f7
f4
fb
06
07
03
fa
03
03
04
fd
fa
02
16
24
1d
1f
0e
05
10
0a
0c
ff
11
16
1a
18
06
fc
05
fe
fe
f8
f2
f6
fb
f4
f3
01
00
ff
06
03
00
04
04
02
08
f8
00
fd
f9
08
f8
f7
f2
f5
fc
f6
03
fe
fe
fd
08
00
f2
fa
07
06
fe
f5
fd
01
02
f9
f7
f8
fb
f9
fb
f3
f2
f6
f2
f9
fd
f7
f9
f7
0c
0d
11
04
fc
13
14
03
f8
03
0d
0e
f9
f5
05
fd
f2
eb
f9
fb
f2
ee
ec
f6
f6
fa
fd
f7
fa
f3
fa
00
fd
f9
f7
fe
ff
fc
f5
f7
03
0a
fb
f7
ef
fa
fe
fb
f1
00
ff
f4
fd
0a
0e
05
00
04
10
00
fc
fd
f9
07
00
f9
f5
f1
ff
0b
03
00
fe
0e
ef
f5
e7
f1
ec
fb
fc
f5
fb
f5
f9
06
f9
05
00
03
10
0b
16
0f
02
0f
0e
1a
0e
f7
0d
18
00
e6
f7
01
10
00
f6
04
f7
f7
f6
fc
0a
fa
f1
f3
06
f9
f9
ec
ee
fc
f9
f2
e3
f4
03
f0
f1
e5
f4
fd
ff
f9
eb
fb
08
0e
0a
00
0c
1c
18
0e
06
14
21
01
09
07
00
fc
09
ff
0b
04
04
0c
06
12
12
0a
0a
0f
0e
07
06
ff
0e
16
07
04
f1
f4
fa
05
01
f3
00
0b
0c
09
03
14
11
07
09
03
0a
06
f8
ff
02
0d
06
fd
02
ff
02
0d
10
0b
06
06
0c
0c
05
fb
f8
fc
fe
01
f9
fa
fc
fb
02
eb
f6
f2
fe
00
01
fd
f3
f8
fb
04
fd
fd
fd
06
f3
f6
fa
fe
fd
ee
f6
fc
f9
f6
f0
fa
ff
04
fa
f6
fc
f7
f3
ea
fd
f8
f6
f4
ed
07
06
04
fc
f9
09
0a
04
f6
fb
ff
f3
fc
f8
f9
04
fd
02
ff
0a
fc
fb
fd
fc
07
f7
f9
fb
f7
04
fe
04
01
f7
02
fa
03
09
0a
0c
f0
f3
eb
f6
f7
fb
fb
f3
00
02
f8
fd
f7
04
03
00
f6
00
00
02
fe
f5
fe
04
06
06
f5
ee
f5
f9
09
07
04
05
00
fe
fe
fa
f8
fa
0a
fe
00
fb
0e
05
f6
fd
ff
0c
03
09
04
05
0c
f3
f1
00
00
fd
fe
fa
f6
fb
fa
fb
fe
f8
f5
f9
f2
02
02
fd
f8
ed
fa
f1
e8
ef
fa
f6
fa
f8
fc
03
00
0b
05
fb
02
11
1c
12
ff
0d
27
31
1b
03
fe
06
0c
09
05
fb
fd
01
ff
ff
06
12
0a
0c
fc
08
0e
02
f9
f9
02
ff
f8
f1
ee
0a
06
0a
1c
18
06
11
14
11
08
04
04
05
09
06
03
fa
fa
f7
00
03
fc
f7
f4
f5
f9
00
fa
f8
f7
ff
fc
ff
05
fb
0a
f9
f3
06
08
0d
f3
f8
02
09
0b
01
f9
01
06
01
fd
03
03
f7
00
fe
0f
10
00
00
fb
07
0c
ff
f5
ea
ee
f6
f9
f6
ea
ec
f5
f4
fc
f8
f4
f4
ef
f9
f5
f6
f4
f9
fa
f9
04
01
fe
f9
ff
06
05
02
f5
fc
00
ff
00
03
fb
f8
ec
f3
00
fe
04
00
fe
f9
fe
f9
fa
f2
05
12
0f
11
04
07
10
14
11
03
0c
06
fd
fb
0a
02
fb
f3
f1
fb
01
fa
f5
f5
f8
fc
f9
f4
f0
f7
00
fe
fb
f8
fa
f5
ef
ea
ee
f2
fb
ed
f2
fc
f8
f6
eb
ee
fe
ff
fd
f8
f9
0b
12
fa
f8
fe
09
13
07
13
15
1a
0c
14
1c
20
1d
16
00
01
04
fd
f2
f8
fb
fa
ef
f2
03
06
05
0b
05
f6
f5
f2
f7
f9
fb
ff
00
01
f6
02
04
ff
fa
f3
fb
f6
f1
f0
e7
f3
ea
e6
ec
e2
0a
10
08
11
0d
fb
ff
f6
06
00
ec
f1
e7
02
00
f5
fd
05
12
08
f4
0b
0d
0e
07
f0
03
f6
fc
05
f2
fd
f1
f9
02
e7
f0
de
e1
f3
f8
f9
ed
e9
01
f9
fd
f2
fc
07
00
0d
06
08
ff
08
12
0c
0c
0a
f7
fc
f4
f2
ff
f4
fd
f6
fa
00
f1
02
f7
f9
fd
11
0b
ff
01
03
07
05
0b
0b
0a
f9
fd
fc
ef
ee
fe
08
04
f8
f4
01
ff
ff
00
fe
e3
ec
f3
ef
eb
f7
fe
f9
ed
f3
f8
f3
ed
eb
f5
ee
f4
ef
f6
03
e7
f8
fb
fd
fe
02
04
05
06
0b
04
02
01
f9
06
fa
f6
f4
f5
fc
fa
fa
fa
fc
06
00
01
03
ff
08
fb
f6
f2
09
fd
f8
fb
f9
00
01
ee
f8
f6
02
0c
f0
f0
eb
fb
06
f2
f7
f3
03
05
0c
10
0c
0a
03
fc
08
03
03
07
fe
0c
0a
01
fd
00
07
08
05
01
0d
16
0f
0f
01
04
05
03
0e
12
0e
03
02
04
0f
f7
ee
e6
ed
fd
ff
f3
ee
fe
0c
06
fc
fe
06
0d
0b
06
ff
08
0c
f1
eb
e8
f2
f1
fb
f9
f2
fd
f3
06
04
f8
ff
f7
0d
0a
f9
00
06
02
f3
fc
01
f2
fc
fd
fc
fe
f5
f8
f9
f7
01
fd
fc
04
ff
f2
f4
ff
ff
f1
e2
ed
e2
ed
eb
e9
e1
0b
13
16
08
00
fd
09
08
fc
f2
fd
05
04
fd
f2
fb
f9
f6
f2
ef
f7
f1
e4
f6
f6
f3
ec
00
f9
e6
fa
01
06
f5
f1
0f
1a
12
03
06
12
1d
08
0c
0f
fb
01
fc
06
fe
ed
f6
eb
e0
ed
fc
02
ed
ec
08
ff
03
f3
01
12
fe
f3
ea
f2
f3
fd
03
09
04
f7
06
11
10
ff
0a
0b
10
03
10
14
18
0c
18
26
2b
16
12
1c
26
23
00
02
04
04
fd
05
05
08
05
13
ff
05
03
fc
f9
09
0b
05
01
09
02
fd
01
07
0e
fc
0c
03
0b
ff
f9
f8
06
0a
f8
fe
fd
07
04
fb
09
09
0b
fd
f7
fa
ff
ec
f0
eb
12
19
0f
09
04
0b
03
05
fc
fc
14
13
12
08
03
26
2b
21
10
0b
1a
13
0f
0a
09
03
fb
f7
f2
fc
07
fd
00
f4
01
0c
fa
00
f7
03
fe
f4
ff
fd
fe
f9
fd
fb
fb
ec
ff
06
01
fe
f0
15
1b
10
0d
0c
02
f3
f0
fc
05
06
03
06
16
13
18
12
1c
1c
18
06
07
04
09
ff
01
f7
f6
fb
f3
f9
f9
f3
f3
fa
eb
f1
eb
f8
e5
e8
f3
f8
fe
d3
01
fd
08
0d
14
f0
f6
f9
00
05
0d
11
02
03
03
0b
01
f8
f7
04
fa
00
07
0a
1f
fd
0d
06
00
08
fa
03
01
f6
01
f2
f0
ed
03
09
f8
f5
0b
1c
fd
f9
f9
15
0f
ec
1f
3a
27
17
14
0c
1a
06
f6
f5
00
f1
e8
f6
07
06
fa
12
13
0b
11
15
2c
12
08
09
0f
0b
11
0b
0f
11
05
03
05
0f
ff
f6
fc
0f
04
fc
fe
0c
0a
fa
02
0d
16
fc
fa
fe
eb
fa
f5
03
fb
f7
f7
f4
03
08
fb
07
04
fd
01
fc
09
03
f7
f9
fa
08
f1
fe
12
0d
00
03
fa
03
f7
f2
fa
e8
e3
df
ec
f4
e8
e1
f1
02
f0
ed
e9
fd
04
ea
15
03
f9
07
25
08
f3
f1
fb
0f
09
03
02
09
14
0e
fe
f8
fe
12
05
ff
00
0a
03
ec
ed
f0
f5
ef
f1
f0
f1
f3
ef
e3
e4
e6
eb
e7
e4
dc
e1
e8
e4
e8
ef
f4
f2
ef
0b
0a
0a
0a
01
ff
fc
06
f9
fb
fa
fd
02
fc
0a
00
ff
02
04
06
05
02
0d
02
fa
f4
f9
f7
fc
06
f3
fe
07
07
fb
07
00
0b
16
0b
0c
0d
0c
09
04
03
0f
13
07
e5
0c
0b
0e
0d
16
0a
fe
fa
fb
0a
00
fd
f2
ef
fd
f7
ee
f6
f1
fa
01
ef
e9
f5
fb
f8
05
0e
0c
fd
f7
0a
12
02
08
02
08
09
0c
05
07
00
03
08
0d
f5
fe
07
03
05
04
fe
f6
fe
ff
06
f6
f1
fd
fc
fb
ea
ed
fc
fd
fc
ef
ef
00
04
ef
f5
f5
07
fe
00
f7
f9
f6
f6
f7
f4
f4
f3
f1
f7
f9
f7
fc
f9
0b
06
01
06
04
1b
17
10
0d
10
fb
f3
eb
eb
ef
f8
00
f7
ff
02
ee
f4
f2
fe
fa
f8
01
f7
fe
f5
fb
10
10
0d
fd
ee
f0
f4
f3
f8
f2
fd
02
fb
03
02
0c
0d
0b
0a
fc
07
0b
07
09
01
11
17
0e
01
f6
f0
ff
f2
f5
fd
fd
0b
02
ff
f4
fa
0f
02
05
fc
fd
0d
09
fe
14
15
1a
05
fc
11
0c
02
ff
01
02
01
01
04
06
ef
fc
04
fd
ff
e8
ed
f6
fb
fa
e6
ef
f1
f4
f5
f8
fd
fd
00
02
f5
f6
f3
01
ff
f2
f9
fb
fb
00
04
0c
11
0a
0a
0b
0d
0a
10
09
fc
f2
ec
ec
f1
0c
fb
ee
f4
04
01
fe
f1
ed
03
ff
fe
fc
04
0a
0f
0b
0e
11
11
fe
04
00
ff
f9
04
01
fa
f7
f3
04
01
f1
f2
fd
01
f7
ee
fb
05
ec
e9
ee
fc
f7
03
fa
e6
ee
fb
f9
fb
ed
f2
fc
02
03
f2
fc
02
01
06
f1
fe
02
06
14
03
02
f3
19
09
fe
fc
08
0d
f7
e8
fb
08
ff
e3
db
f1
09
09
f1
eb
06
20
0a
fd
02
18
24
03
fa
fb
fd
06
fe
01
01
fd
05
fe
04
ff
f9
02
f8
f9
ff
fa
03
f2
f6
02
03
fe
0c
15
1f
16
15
09
12
0b
08
fd
0e
17
07
fa
04
10
07
07
07
fd
12
fe
ee
e5
f2
f9
fd
fe
f1
f6
fa
00
00
f8
f8
01
fd
fb
f4
f5
fa
fe
f8
eb
e3
f2
f7
f7
f1
ed
00
01
f9
f8
01
f8
f9
fe
f5
fa
f1
f3
fa
fd
fc
f2
fb
f5
f3
ff
f9
f9
02
f8
f5
04
fb
04
fa
fc
05
06
00
ff
fd
0f
0d
0c
04
09
0b
01
09
07
05
fd
0c
11
13
0d
f7
fe
01
fc
ff
f7
00
fd
ff
04
ff
fe
08
0d
05
fd
02
01
ff
00
f5
01
02
f5
ea
01
fc
fa
fe
f7
07
02
fa
08
0c
00
fe
fd
08
12
f2
f2
fd
06
04
fa
fa
00
fd
f2
10
17
19
11
0a
0c
0e
0b
02
02
07
fa
f6
f5
fa
0d
f7
e9
f0
09
03
00
07
15
1c
04
07
13
09
08
ff
0d
11
03
03
01
01
0e
06
ff
03
03
05
02
04
08
0b
0a
06
00
01
f3
f6
01
08
05
f8
f6
00
12
fc
f5
f1
00
04
fa
f4
fa
06
03
0b
07
07
06
f5
fd
ff
fb
f9
00
02
02
02
00
00
13
0e
07
0d
09
06
06
14
17
06
fa
00
0f
18
01
00
fb
fc
fe
fb
fd
fb
00
02
f8
08
02
05
05
00
10
0e
03
00
00
ed
f7
04
0a
00
0c
0c
f8
01
f7
08
07
f9
fe
fb
fd
f8
f3
ff
fa
f5
f2
ec
fd
fc
fd
fe
fb
0b
fc
08
02
f7
f6
f5
01
fa
04
00
f6
f9
fc
fd
fd
ef
fd
03
0a
08
ff
f0
fe
fe
03
f9
f4
f9
fb
ff
03
f9
02
10
0a
01
0d
0a
10
0e
fe
25
25
0f
ee
fc
0b
0d
02
ec
fe
18
12
11
11
0a
01
fc
05
08
00
f8
fd
fc
03
fa
02
f9
f2
f4
fa
04
f1
ea
f3
01
0c
0a
11
18
0e
0a
05
03
0f
0c
07
05
f5
fb
09
00
f7
f7
00
14
f2
ee
f1
00
08
07
01
ff
00
00
06
fa
fc
f6
00
f9
f0
e9
f0
08
e9
e6
e8
01
1a
ef
ea
01
15
17
f7
f9
fc
f4
f5
f6
ef
eb
f5
f9
09
08
03
0b
09
00
09
08
0d
03
fd
ff
04
0a
03
00
fc
05
fe
fa
f7
f5
f7
f9
f3
f6
eb
ec
ed
f2
fd
f1
eb
f9
00
07
00
fc
00
03
f4
f2
ff
0f
12
02
05
11
1c
1c
0a
0f
1d
17
11
10
10
11
04
01
0a
0b
fd
fa
f8
06
f1
ea
f5
ef
0d
00
f4
f6
f5
06
ff
f5
f7
f7
fa
f7
f9
fa
f3
01
fc
fd
0a
02
f7
f5
f9
ff
f2
fc
f8
fd
02
02
04
ff
03
08
06
01
01
00
05
02
07
0b
06
08
01
f2
fe
fd
fa
f0
f8
fc
f9
f4
ec
f1
fc
f7
f1
ef
f7
02
f6
fb
fd
03
fe
f5
01
05
05
0a
09
08
01
01
0a
09
04
ff
03
07
08
04
00
fc
f7
fe
ff
02
f7
f4
f4
fe
ff
ff
05
12
03
f2
ff
ff
04
ff
f5
fc
fd
ff
ff
f9
f4
f0
fb
f7
fa
eb
f3
ff
f7
f5
f9
fb
ee
f7
fa
04
04
f8
f3
f6
ff
fb
ea
e1
e8
fc
f7
eb
e7
f6
00
07
ff
fb
0b
01
03
02
04
02
03
08
fb
05
03
06
fd
f5
f9
fb
0b
00
f8
fc
02
02
fd
f9
fe
fd
ff
02
08
fe
ef
06
02
0a
02
fc
09
fa
06
ff
05
07
f2
f2
fa
04
00
fa
fc
fa
06
fa
0f
0e
0d
ef
09
11
0d
12
ff
07
0b
fe
0c
fd
05
fb
ef
ff
f5
f9
f5
f1
f6
e7
f2
f3
f7
ff
fd
ee
e8
f3
fb
03
f4
e3
f7
fd
01
fb
f0
fc
08
04
fa
fc
06
14
0d
02
fc
f4
f9
02
03
fc
f4
02
09
ff
f3
ed
00
0f
0d
f5
f4
fd
19
12
01
fd
0f
18
03
06
0c
fe
ff
ff
07
09
fe
f8
fe
07
0d
01
fa
eb
f0
f6
f4
ee
f4
f9
ff
f9
f0
0e
08
ff
0d
07
19
07
02
05
fc
15
07
fd
04
fa
12
09
01
02
09
f5
fd
fe
08
06
01
fb
f6
f6
fd
0c
08
03
03
07
03
0e
0d
0c
ff
fb
06
09
07
fd
ef
ff
07
fe
f9
fa
f9
ee
ed
f5
ed
eb
e7
ea
f1
f8
fb
fc
fe
f3
fd
fb
04
fb
f6
02
ff
ff
ff
f6
02
fd
01
fd
0f
08
f9
f5
f3
06
00
f8
f3
f3
01
f9
00
02
06
04
fd
fc
04
01
f5
01
01
05
ff
f8
f5
f4
fe
f9
f4
f4
ef
fe
01
fb
ea
e4
ef
f9
fe
ee
e8
ef
fe
00
09
fe
08
ff
f8
08
f9
ff
f5
f5
fa
ec
f0
ea
ec
f3
ec
ed
f2
f9
06
f8
fa
ff
03
f0
04
08
0a
01
f7
fe
01
09
fd
fe
06
ff
09
03
04
03
f9
02
02
09
03
fe
0c
07
f9
07
0e
00
fb
02
06
0d
01
fc
0e
12
18
06
07
05
05
09
05
01
03
00
04
01
04
03
fd
f9
fd
06
08
04
00
01
0b
03
fe
fa
01
0b
12
07
04
0e
10
09
fe
fd
05
0a
0f
08
fc
fa
f6
21
18
0a
04
fd
20
1b
15
0b
01
0a
0e
0a
03
01
06
05
08
06
09
02
f1
ec
e8
fc
15
13
0d
04
02
12
1f
1a
0f
08
0c
1a
15
0f
04
00
06
07
01
fb
f5
fb
f4
f3
06
f5
02
f6
fa
04
f5
fd
f9
f7
f9
fe
fc
f6
f9
f3
fa
f8
f2
f3
e9
fa
fa
0a
01
13
f0
f0
06
0c
1c
ec
e7
fb
04
11
00
fb
fd
f9
04
fa
02
f6
ee
f4
f6
fe
fe
f8
f6
04
09
12
08
0a
0a
0c
16
0b
10
03
09
12
10
0c
fd
fe
03
08
04
f2
01
08
07
fb
f4
01
09
06
01
f1
fe
07
01
fe
05
01
00
ff
14
07
ee
e1
f7
11
f8
ff
fe
fe
05
fa
05
00
ff
0b
fe
0a
0d
07
0b
ff
0e
09
0c
0c
f8
03
05
07
01
08
0a
07
0b
10
01
fa
03
0d
1c
f8
ef
ea
00
13
fb
f3
ee
f9
07
01
f9
f4
f9
00
02
f0
f2
e7
ee
24
08
0d
f9
02
37
16
0d
ed
ed
20
f7
ed
e0
d9
04
fd
f9
f1
df
f8
0b
17
15
ff
ff
09
0e
1e
0f
04
04
f8
ff
f9
07
06
f0
ef
f3
fc
ff
ed
e6
f5
03
03
fb
f6
f7
03
04
fc
01
fc
f4
fe
f7
ed
f9
ef
fa
01
fe
fb
0b
1a
19
16
00
fa
f9
f9
f4
00
fc
fe
07
02
07
ea
f1
0d
07
f5
e6
f7
16
1e
fe
dd
ed
04
2d
16
11
0b
fd
00
0d
07
07
02
01
12
01
09
08
0d
20
f7
fc
fe
08
10
f9
f3
f4
f7
ff
13
f7
f6
02
03
04
f7
08
13
07
1a
f8
fe
00
ff
11
f1
fb
00
ee
ee
dd
02
0a
ed
fb
03
05
03
0e
eb
f5
ee
f3
05
f5
fd
fe
13
07
f7
0f
1e
28
1e
f0
01
fb
04
05
1d
12
02
f1
f4
1a
0a
f2
e0
ea
08
fe
e8
d3
df
0b
0c
01
f0
f6
10
1a
16
04
02
f1
00
fb
ea
fd
f9
f9
02
fc
0f
f5
f7
07
fd
01
f7
04
0f
fe
f5
f6
0c
18
0b
fc
04
fa
fc
06
f4
0c
fb
04
0d
f1
24
04
06
fe
e1
17
f6
fd
f7
e0
26
07
fa
f6
e2
08
01
fe
02
0d
fd
f6
e6
ea
fb
fe
f4
e1
d8
f4
0e
05
f3
ea
f9
19
0a
fe
f6
08
b6
c7
25
39
09
c7
da
37
4c
0e
ba
d1
31
4d
13
b9
cd
31
4f
22
85
a2
01
1d
fa
00
04
fe
11
06
fc
02
08
18
01
0c
fa
07
1e
06
05
f0
03
1b
03
0e
f0
0e
16
04
0d
03
02
08
07
07
f7
f2
f6
00
0a
f3
eb
f3
f7
18
02
f6
f8
04
11
f9
f6
00
01
0a
02
f5
f9
fd
fb
f4
f9
f9
f9
eb
e7
fa
fa
03
0b
04
f8
ef
fd
24
19
02
f8
f4
0e
1f
02
f6
f1
07
14
f2
07
e4
fa
0d
f7
13
ef
ed
02
f2
09
f7
f4
f6
fe
17
0e
06
05
10
fc
01
fe
09
ff
ed
f3
06
0d
02
fb
fd
12
11
0c
fc
f2
12
0d
fd
f1
f2
09
f4
fe
0e
03
0a
f2
f9
09
fb
0f
f6
eb
fa
f8
09
f6
f4
01
ef
04
fe
f4
f2
df
01
f4
ee
f3
f2
08
e9
fa
01
f4
fd
ea
fe
05
f2
fe
ed
f7
fb
ee
f4
ec
fa
12
01
0c
0c
13
06
dd
12
08
07
fc
e1
0f
ff
00
fa
ec
20
0c
04
01
f2
1d
12
0e
17
08
03
fb
f1
eb
f9
08
03
ff
ff
0c
12
10
10
09
14
0e
0e
10
05
06
f8
e8
e9
e9
06
03
f7
04
fa
01
ff
fd
01
