d9
00
dc
37
e2
dd
cb
22
2b
fd
d8
2f
45
34
fb
da
55
d2
05
1c
d3
48
ea
28
e9
fb
0a
eb
12
06
f6
55
f9
f0
f8
e7
21
ca
43
d7
e7
bd
c1
1f
0f
0b
31
14
3c
de
20
4a
e8
1e
0f
ef
e8
0f
e2
f0
0d
dc
da
f2
2b
f4
d0
09
dd
f6
cb
e4
d7
d2
22
e8
f9
d2
c3
f8
e1
e6
1a
42
db
e4
1f
28
14
36
18
7d
35
c4
05
0b
d0
de
f6
e0
e5
fd
ff
ef
d8
c0
ea
36
25
0f
26
2f
d6
e9
3f
3f
e4
da
b5
ba
0c
07
09
3b
ca
71
5d
1d
cb
dd
fa
37
f6
3f
02
06
ea
35
f7
2e
d5
ef
e1
da
d8
fa
29
31
0c
16
cd
2e
ea
e9
e3
e2
ce
e7
08
39
ff
40
42
1f
09
be
03
17
31
fc
d2
c1
e2
0f
25
d4
46
12
1b
d9
20
2a
ed
2d
2b
f8
e1
c3
00
fc
18
2a
16
f0
1d
e6
27
26
2b
ea
27
c0
3e
13
0e
ed
56
0c
fb
22
e9
d0
3d
f3
dd
ca
14
e8
f2
d1
e8
2c
fb
ef
00
11
0b
fe
ee
f5
e5
f5
0a
13
04
1f
09
ef
07
21
25
f3
ce
e8
fa
00
31
eb
03
18
e2
07
ed
0f
ee
20
e0
f1
35
13
e4
ff
e2
17
04
1b
f6
0b
eb
31
35
ff
e4
03
09
d2
12
fe
4a
c6
1a
0e
b9
df
30
e5
1e
25
0f
f6
d9
3c
1e
ec
da
02
35
e8
2e
0e
e9
c8
b2
d4
e0
6b
36
e6
3a
fb
ec
4c
b3
df
06
d5
01
fa
e9
f2
07
e9
17
bd
51
15
18
04
b9
2e
12
0e
d9
ee
00
f4
05
3f
05
be
1f
f5
dd
f7
ec
04
0d
24
fa
57
f6
d6
3c
da
28
09
02
06
c6
d5
f3
36
01
fc
0e
cd
e3
2f
fe
fe
c0
17
d5
be
1d
12
49
e5
16
06
e8
f0
e9
f9
ff
2f
37
e3
d5
05
00
c9
06
d2
20
ae
d3
12
08
f5
0e
db
43
24
25
0f
f0
e0
fb
d1
10
f6
f5
d2
c6
b4
30
45
dc
f3
51
22
e6
3e
17
13
d5
dc
38
f0
26
17
db
dd
0d
d9
1b
09
1a
fd
f4
09
36
1a
f8
e4
d0
3e
cc
2f
09
1a
f7
ca
52
4e
17
5d
fb
0e
1f
e8
e9
f2
03
0b
de
f5
1a
f6
e1
72
32
5d
c5
cb
fa
3e
00
0e
05
dc
1c
25
d5
2b
19
f3
e5
f4
32
b4
ca
d7
c7
e6
c9
30
e4
24
f1
f0
1c
fd
c2
e5
f7
02
e4
f4
13
c2
2a
cd
e0
e6
fd
e9
db
08
ea
d3
e5
eb
17
10
09
73
1c
ca
dc
2e
d6
e8
38
d0
0c
c2
05
e2
ad
05
45
e7
d1
fd
ce
bc
fb
2e
2f
10
fc
44
14
47
e5
62
16
ef
0d
dd
0f
aa
19
ef
d3
0e
fd
4e
33
e9
62
e2
f0
eb
41
35
d8
ee
25
f7
12
d3
27
ef
cf
ec
15
f5
e2
ed
e3
40
ca
ca
c1
e3
29
d8
c1
fc
6e
44
45
d1
ea
d8
e9
ec
f9
07
ba
1b
09
1a
e7
11
3f
ee
01
31
ed
d8
f4
e7
bd
1a
e4
3f
0d
d7
2a
d5
d7
3b
0d
05
22
d3
